<unk>	0
<s>	0
</s>	0
▁t	-0
he	-1
▁a	-2
in	-3
▁the	-4
er	-5
on	-6
▁,	-7
re	-8
▁s	-9
▁o	-10
▁w	-11
ed	-12
nd	-13
▁.	-14
at	-15
or	-16
▁c	-17
it	-18
▁f	-19
en	-20
is	-21
▁of	-22
es	-23
▁b	-24
▁in	-25
ar	-26
an	-27
al	-28
▁and	-29
▁p	-30
ing	-31
as	-32
▁to	-33
▁m	-34
ro	-35
ic	-36
▁d	-37
▁h	-38
ion	-39
ou	-40
le	-41
▁T	-42
▁=	-43
▁re	-44
▁"	-45
▁th	-46
ent	-47
▁A	-48
▁1	-49
il	-50
▁S	-51
st	-52
▁l	-53
om	-54
▁e	-55
▁n	-56
▁@	-57
am	-58
▁C	-59
el	-60
ad	-61
▁was	-62
ac	-63
▁The	-64
▁on	-65
▁be	-66
ur	-67
ly	-68
▁M	-69
▁'	-70
▁I	-71
▁g	-72
▁for	-73
iv	-74
ol	-75
ter	-76
▁B	-77
-@	-78
▁@-@	-79
im	-80
id	-81
ir	-82
▁as	-83
ct	-84
ig	-85
th	-86
ow	-87
ith	-88
▁st	-89
▁H	-90
us	-91
▁2	-92
ay	-93
▁that	-94
▁with	-95
her	-96
ot	-97
ce	-98
ver	-99
ut	-100
ation	-101
et	-102
▁is	-103
▁P	-104
▁wh	-105
ch	-106
▁by	-107
▁R	-108
▁)	-109
▁(	-110
▁al	-111
un	-112
▁F	-113
▁D	-114
▁con	-115
em	-116
ul	-117
▁W	-118
▁at	-119
▁it	-120
▁19	-121
and	-122
ain	-123
rom	-124
os	-125
▁N	-126
▁an	-127
▁G	-128
▁L	-129
ers	-130
▁he	-131
est	-132
ag	-133
av	-134
00	-135
▁J	-136
▁se	-137
um	-138
▁de	-139
▁his	-140
▁r	-141
▁from	-142
od	-143
▁O	-144
ri	-145
▁com	-146
▁E	-147
pe	-148
ist	-149
▁pro	-150
if	-151
ld	-152
ere	-153
ies	-154
ort	-155
▁v	-156
res	-157
▁su	-158
ore	-159
▁were	-160
ill	-161
▁In	-162
ap	-163
ong	-164
ew	-165
op	-166
igh	-167
ich	-168
▁or	-169
ate	-170
art	-171
all	-172
ard	-173
ak	-174
▁ch	-175
ber	-176
ame	-177
▁ex	-178
gh	-179
ab	-180
ud	-181
▁pl	-182
se	-183
ated	-184
ant	-185
ity	-186
▁are	-187
rou	-188
oc	-189
ive	-190
ess	-191
qu	-192
▁sh	-193
▁had	-194
▁k	-195
ack	-196
▁which	-197
▁U	-198
red	-199
▁y	-200
▁K	-201
▁le	-202
ov	-203
pt	-204
our	-205
▁not	-206
ast	-207
ment	-208
ip	-209
▁St	-210
rit	-211
ord	-212
ear	-213
▁tr	-214
ge	-215
ally	-216
ian	-217
ther	-218
ost	-219
ine	-220
ave	-221
ight	-222
▁u	-223
oun	-224
ell	-225
▁3	-226
ish	-227
pp	-228
cl	-229
ary	-230
▁Ch	-231
▁200	-232
ust	-233
irst	-234
ia	-235
▁;	-236
te	-237
▁comp	-238
▁their	-239
▁but	-240
cc	-241
so	-242
ction	-243
fter	-244
▁first	-245
ous	-246
▁un	-247
ure	-248
▁its	-249
ould	-250
ra	-251
▁–	-252
ide	-253
▁whe	-254
▁cont	-255
▁ar	-256
ue	-257
ical	-258
ome	-259
og	-260
wo	-261
hed	-262
▁20	-263
▁:	-264
ial	-265
ie	-266
▁her	-267
▁also	-268
ition	-269
▁int	-270
ub	-271
▁V	-272
own	-273
▁cl	-274
ru	-275
ater	-276
out	-277
ign	-278
▁us	-279
orm	-280
ork	-281
per	-282
▁ab	-283
▁ad	-284
ok	-285
ff	-286
▁have	-287
age	-288
ire	-289
▁He	-290
▁one	-291
ass	-292
▁has	-293
▁rec	-294
low	-295
mer	-296
ime	-297
▁ro	-298
▁been	-299
du	-300
▁two	-301
▁4	-302
▁res	-303
▁18	-304
▁Th	-305
.@	-306
▁@.@	-307
▁per	-308
ond	-309
▁5	-310
ree	-311
▁who	-312
ence	-313
uring	-314
ough	-315
land	-316
▁this	-317
are	-318
▁bec	-319
ile	-320
ult	-321
pl	-322
ry	-323
ory	-324
ance	-325
ect	-326
▁It	-327
ans	-328
▁sc	-329
▁bo	-330
▁play	-331
▁Al	-332
▁they	-333
clud	-334
▁year	-335
▁201	-336
▁part	-337
▁ag	-338
ade	-339
▁des	-340
ations	-341
ount	-342
▁man	-343
ric	-344
▁other	-345
▁dis	-346
▁te	-347
ely	-348
▁after	-349
ach	-350
▁j	-351
act	-352
▁ser	-353
ound	-354
▁over	-355
over	-356
▁off	-357
,@	-358
▁@,@	-359
ang	-360
▁includ	-361
▁sp	-362
ions	-363
▁en	-364
ite	-365
urn	-366
▁im	-367
ace	-368
ice	-369
iz	-370
ib	-371
wn	-372
▁out	-373
▁up	-374
ke	-375
ress	-376
▁Y	-377
ark	-378
▁time	-379
nder	-380
▁ne	-381
▁into	-382
▁fin	-383
rough	-384
▁pre	-385
▁ev	-386
ced	-387
round	-388
port	-389
we	-390
▁On	-391
▁spe	-392
ces	-393
▁more	-394
▁would	-395
▁she	-396
▁comm	-397
ted	-398
ason	-399
▁att	-400
ward	-401
▁all	-402
ren	-403
ose	-404
one	-405
ail	-406
ited	-407
▁him	-408
amp	-409
▁we	-410
tern	-411
ied	-412
ens	-413
oin	-414
ased	-415
▁6	-416
▁Un	-417
▁cent	-418
rib	-419
▁Re	-420
▁work	-421
ents	-422
▁Se	-423
ild	-424
ix	-425
▁me	-426
ood	-427
ase	-428
les	-429
ings	-430
ts	-431
man	-432
▁7	-433
▁fe	-434
▁them	-435
able	-436
ious	-437
▁when	-438
▁bet	-439
▁song	-440
ake	-441
ors	-442
▁sec	-443
als	-444
ates	-445
vel	-446
▁ear	-447
▁rem	-448
▁An	-449
old	-450
ubl	-451
iss	-452
▁kn	-453
form	-454
▁most	-455
▁during	-456
fer	-457
gan	-458
ath	-459
aus	-460
▁only	-461
ilm	-462
▁new	-463
▁game	-464
oy	-465
ved	-466
ered	-467
ember	-468
ve	-469
orth	-470
ollow	-471
ween	-472
▁199	-473
reat	-474
▁As	-475
way	-476
outh	-477
▁Ar	-478
▁9	-479
▁8	-480
▁rel	-481
▁can	-482
▁about	-483
ters	-484
▁again	-485
▁season	-486
▁three	-487
▁cons	-488
▁than	-489
▁En	-490
ick	-491
ug	-492
▁Mar	-493
▁between	-494
att	-495
aw	-496
ral	-497
▁record	-498
▁some	-499
ational	-500
▁under	-501
ons	-502
▁char	-503
cted	-504
ular	-505
fore	-506
▁through	-507
ind	-508
ict	-509
▁later	-510
hip	-511
iew	-512
▁col	-513
▁num	-514
▁00	-515
▁Com	-516
ft	-517
ision	-518
▁De	-519
▁writ	-520
▁produ	-521
▁while	-522
▁pos	-523
▁film	-524
▁rele	-525
▁ver	-526
ames	-527
▁end	-528
▁inter	-529
ished	-530
▁ap	-531
ey	-532
▁pe	-533
▁made	-534
▁pr	-535
▁form	-536
▁fl	-537
ning	-538
▁reg	-539
▁ass	-540
orld	-541
▁where	-542
▁so	-543
▁spec	-544
▁New	-545
▁mov	-546
ever	-547
meric	-548
▁Americ	-549
ury	-550
▁lar	-551
bum	-552
▁ac	-553
▁app	-554
▁ret	-555
ron	-556
▁bu	-557
▁follow	-558
ener	-559
▁no	-560
▁such	-561
▁def	-562
▁second	-563
ived	-564
▁four	-565
ock	-566
aid	-567
▁mus	-568
▁qu	-569
▁acc	-570
▁used	-571
▁sub	-572
olog	-573
▁inc	-574
▁act	-575
ike	-576
▁At	-577
rop	-578
▁day	-579
▁This	-580
ars	-581
▁Le	-582
▁publ	-583
ific	-584
▁am	-585
ual	-586
▁call	-587
▁album	-588
▁ind	-589
hes	-590
▁000	-591
▁before	-592
▁do	-593
▁appe	-594
ob	-595
ily	-596
oh	-597
▁being	-598
ank	-599
▁gr	-600
▁co	-601
any	-602
▁years	-603
▁Eng	-604
▁there	-605
▁supp	-606
ck	-607
owever	-608
ating	-609
ane	-610
▁found	-611
▁0	-612
▁ele	-613
▁high	-614
▁set	-615
iel	-616
ife	-617
▁ep	-618
ics	-619
orn	-620
hen	-621
▁sy	-622
ird	-623
▁ent	-624
other	-625
iver	-626
▁sur	-627
ained	-628
▁10	-629
▁series	-630
igin	-631
▁number	-632
pen	-633
ten	-634
ll	-635
end	-636
ause	-637
ince	-638
▁loc	-639
ph	-640
ros	-641
▁dec	-642
▁pres	-643
velop	-644
▁both	-645
ode	-646
▁sever	-647
ities	-648
cept	-649
▁12	-650
▁then	-651
▁including	-652
ines	-653
▁epis	-654
son	-655
▁Brit	-656
▁/	-657
▁against	-658
▁well	-659
▁became	-660
▁known	-661
ject	-662
▁—	-663
ised	-664
▁po	-665
▁charac	-666
▁add	-667
▁desc	-668
▁perform	-669
ton	-670
▁sing	-671
▁bl	-672
▁go	-673
▁cap	-674
▁198	-675
▁dire	-676
urch	-677
▁Joh	-678
aj	-679
▁16	-680
ale	-681
▁back	-682
▁many	-683
▁Sh	-684
▁pop	-685
pr	-686
▁main	-687
ident	-688
though	-689
▁United	-690
▁inv	-691
▁stud	-692
its	-693
▁long	-694
ise	-695
ather	-696
ures	-697
row	-698
▁trans	-699
▁origin	-700
io	-701
▁John	-702
▁Br	-703
iet	-704
ement	-705
▁century	-706
▁mon	-707
▁team	-708
ober	-709
▁After	-710
ool	-711
▁Sc	-712
▁est	-713
▁show	-714
▁develop	-715
ann	-716
▁min	-717
ield	-718
ek	-719
ert	-720
ower	-721
▁em	-722
ier	-723
elf	-724
▁194	-725
air	-726
ute	-727
▁cre	-728
▁several	-729
▁She	-730
▁lead	-731
▁17	-732
uch	-733
ared	-734
▁began	-735
▁196	-736
ful	-737
ivers	-738
▁11	-739
▁15	-740
▁mill	-741
▁dif	-742
▁contin	-743
▁197	-744
overn	-745
▁sign	-746
ually	-747
ram	-748
▁sm	-749
view	-750
ired	-751
up	-752
▁may	-753
ative	-754
▁ship	-755
▁comple	-756
▁br	-757
▁could	-758
▁early	-759
led	-760
▁crit	-761
▁did	-762
ern	-763
▁called	-764
ains	-765
ross	-766
▁art	-767
▁episode	-768
til	-769
▁near	-770
▁ob	-771
▁Ind	-772
▁hist	-773
▁pol	-774
▁describ	-775
▁bel	-776
emb	-777
ued	-778
▁rece	-779
ople	-780
iam	-781
une	-782
▁run	-783
▁along	-784
ins	-785
▁ter	-786
imes	-787
ments	-788
▁dep	-789
ccess	-790
ley	-791
▁Wh	-792
▁said	-793
▁feat	-794
▁American	-795
roup	-796
▁bro	-797
▁down	-798
ven	-799
▁Is	-800
▁inst	-801
▁these	-802
aking	-803
▁May	-804
der	-805
▁mil	-806
▁dist	-807
▁Aust	-808
▁though	-809
gest	-810
▁Ger	-811
▁disc	-812
yl	-813
▁British	-814
▁oper	-815
▁until	-816
▁Z	-817
ove	-818
oot	-819
▁start	-820
anc	-821
▁city	-822
▁same	-823
ting	-824
rap	-825
▁inf	-826
ured	-827
▁prev	-828
▁released	-829
els	-830
▁gener	-831
ty	-832
ange	-833
▁exp	-834
▁own	-835
ized	-836
▁any	-837
▁return	-838
amed	-839
▁They	-840
▁War	-841
ially	-842
▁km	-843
ided	-844
▁land	-845
▁design	-846
▁rep	-847
▁war	-848
▁music	-849
▁prov	-850
▁imp	-851
▁million	-852
▁because	-853
ajor	-854
▁use	-855
▁area	-856
▁Con	-857
tend	-858
▁car	-859
▁fam	-860
▁air	-861
az	-862
▁Aug	-863
▁August	-864
oman	-865
au	-866
▁like	-867
▁open	-868
▁success	-869
▁mat	-870
osed	-871
▁sim	-872
▁Fr	-873
▁Chr	-874
▁occ	-875
erson	-876
ink	-877
ep	-878
enn	-879
▁const	-880
ook	-881
▁people	-882
▁count	-883
ull	-884
▁eff	-885
hy	-886
ium	-887
▁ins	-888
chool	-889
▁pass	-890
▁offic	-891
stem	-892
ible	-893
xt	-894
▁195	-895
▁six	-896
▁support	-897
▁Bl	-898
▁Be	-899
▁around	-900
my	-901
▁small	-902
▁However	-903
ah	-904
▁win	-905
▁%	-906
▁Sept	-907
▁adv	-908
▁north	-909
▁dam	-910
▁group	-911
▁str	-912
▁Car	-913
▁each	-914
▁poin	-915
▁September	-916
ony	-917
ues	-918
▁consid	-919
▁met	-920
ouse	-921
▁following	-922
▁Pl	-923
▁character	-924
▁Ju	-925
ists	-926
wards	-927
▁World	-928
▁life	-929
ms	-930
erv	-931
▁ed	-932
▁Austral	-933
uc	-934
▁head	-935
▁13	-936
aining	-937
▁mod	-938
▁five	-939
▁contro	-940
▁attack	-941
▁govern	-942
ole	-943
▁193	-944
ording	-945
▁result	-946
▁Comm	-947
ient	-948
ales	-949
▁var	-950
oss	-951
▁All	-952
▁Te	-953
▁will	-954
▁large	-955
uth	-956
ution	-957
▁ever	-958
ets	-959
▁191	-960
▁II	-961
▁Her	-962
▁gu	-963
▁Col	-964
▁ann	-965
▁report	-966
ague	-967
▁conc	-968
ural	-969
▁US	-970
▁Me	-971
▁Cl	-972
rote	-973
lish	-974
▁June	-975
▁book	-976
▁North	-977
▁Eu	-978
und	-979
aving	-980
aced	-981
ash	-982
▁For	-983
▁tit	-984
▁German	-985
dom	-986
▁since	-987
▁States	-988
ik	-989
ble	-990
▁prom	-991
ped	-992
▁south	-993
▁received	-994
▁final	-995
▁major	-996
ilt	-997
med	-998
▁name	-999
ately	-1000
▁Jan	-1001
ivision	-1002
▁Ad	-1003
pect	-1004
▁Oct	-1005
▁partic	-1006
▁system	-1007
▁South	-1008
▁public	-1009
..	-1010
▁care	-1011
▁state	-1012
▁dr	-1013
▁Christ	-1014
▁King	-1015
▁what	-1016
ives	-1017
▁direct	-1018
uary	-1019
▁hel	-1020
▁last	-1021
▁described	-1022
hel	-1023
tle	-1024
▁ext	-1025
▁October	-1026
ored	-1027
▁14	-1028
▁line	-1029
▁$	-1030
▁appear	-1031
▁...	-1032
▁Can	-1033
▁rest	-1034
▁batt	-1035
▁week	-1036
▁Fe	-1037
▁played	-1038
cess	-1039
▁class	-1040
▁incre	-1041
▁took	-1042
ropical	-1043
▁Nov	-1044
▁now	-1045
arl	-1046
▁[	-1047
▁]	-1048
▁build	-1049
▁York	-1050
gin	-1051
aged	-1052
▁world	-1053
▁July	-1054
ages	-1055
▁late	-1056
▁wrote	-1057
▁Tr	-1058
empt	-1059
iving	-1060
ional	-1061
▁won	-1062
ology	-1063
▁species	-1064
ideo	-1065
▁stru	-1066
aim	-1067
▁child	-1068
▁25	-1069
▁much	-1070
▁During	-1071
ody	-1072
▁due	-1073
ified	-1074
▁Gu	-1075
▁serv	-1076
pril	-1077
▁April	-1078
▁single	-1079
▁camp	-1080
▁allow	-1081
ats	-1082
iod	-1083
min	-1084
▁short	-1085
▁differ	-1086
▁port	-1087
▁vers	-1088
▁death	-1089
▁just	-1090
ball	-1091
▁ty	-1092
▁mar	-1093
▁another	-1094
▁included	-1095
▁Euro	-1096
▁poss	-1097
▁January	-1098
▁old	-1099
ility	-1100
ively	-1101
▁storm	-1102
get	-1103
▁even	-1104
▁gun	-1105
▁within	-1106
▁England	-1107
▁list	-1108
ission	-1109
▁left	-1110
ism	-1111
omin	-1112
▁position	-1113
▁named	-1114
▁based	-1115
▁estab	-1116
▁if	-1117
ants	-1118
▁arr	-1119
▁conf	-1120
▁vis	-1121
▁although	-1122
▁prog	-1123
▁attempt	-1124
ax	-1125
ont	-1126
▁30	-1127
▁very	-1128
▁appro	-1129
ina	-1130
▁third	-1131
▁games	-1132
by	-1133
akes	-1134
ital	-1135
▁And	-1136
▁ref	-1137
▁top	-1138
▁belie	-1139
ple	-1140
ctions	-1141
▁track	-1142
▁March	-1143
ner	-1144
▁lit	-1145
▁family	-1146
▁previous	-1147
▁Ge	-1148
▁Mus	-1149
▁Pro	-1150
▁November	-1151
▁Gr	-1152
▁power	-1153
▁tri	-1154
▁event	-1155
▁period	-1156
▁review	-1157
▁Q	-1158
▁best	-1159
▁home	-1160
ilar	-1161
mber	-1162
▁way	-1163
urric	-1164
▁resp	-1165
▁school	-1166
▁Ro	-1167
▁Europe	-1168
▁water	-1169
▁His	-1170
▁government	-1171
ances	-1172
ograp	-1173
ently	-1174
▁Dece	-1175
▁expl	-1176
▁December	-1177
▁192	-1178
▁men	-1179
ret	-1180
▁those	-1181
avy	-1182
raft	-1183
▁By	-1184
▁There	-1185
ger	-1186
▁turn	-1187
▁constru	-1188
ract	-1189
▁hum	-1190
ience	-1191
▁place	-1192
▁City	-1193
▁organ	-1194
ulation	-1195
▁sl	-1196
▁built	-1197
ards	-1198
pend	-1199
▁bre	-1200
ature	-1201
ians	-1202
urther	-1203
▁great	-1204
ides	-1205
▁story	-1206
▁prote	-1207
▁command	-1208
ached	-1209
▁kill	-1210
▁month	-1211
▁When	-1212
▁colle	-1213
ched	-1214
hest	-1215
▁sent	-1216
▁person	-1217
▁original	-1218
ript	-1219
iversity	-1220
itary	-1221
▁make	-1222
▁hand	-1223
eder	-1224
▁100	-1225
▁opp	-1226
▁2009	-1227
▁2010	-1228
▁med	-1229
▁video	-1230
▁National	-1231
▁2008	-1232
▁auth	-1233
▁requ	-1234
▁hal	-1235
ention	-1236
▁present	-1237
oci	-1238
aur	-1239
▁mark	-1240
▁ph	-1241
▁sug	-1242
ham	-1243
▁eng	-1244
▁club	-1245
ences	-1246
riend	-1247
por	-1248
iven	-1249
elt	-1250
aster	-1251
ene	-1252
▁view	-1253
▁Mc	-1254
ically	-1255
self	-1256
▁River	-1257
▁moved	-1258
▁led	-1259
▁capt	-1260
▁role	-1261
▁addition	-1262
▁stand	-1263
▁still	-1264
▁leg	-1265
▁came	-1266
▁local	-1267
▁iss	-1268
rench	-1269
▁repl	-1270
gy	-1271
ense	-1272
aff	-1273
▁often	-1274
urricane	-1275
▁history	-1276
▁common	-1277
▁We	-1278
ival	-1279
▁caus	-1280
▁dest	-1281
▁cour	-1282
ae	-1283
▁Pr	-1284
ison	-1285
▁Man	-1286
aken	-1287
▁dem	-1288
▁effect	-1289
ery	-1290
▁few	-1291
be	-1292
▁Bo	-1293
ady	-1294
ops	-1295
▁No	-1296
▁2007	-1297
▁next	-1298
▁considered	-1299
▁Fl	-1300
▁trad	-1301
eng	-1302
ories	-1303
▁player	-1304
▁suggest	-1305
ling	-1306
lev	-1307
▁star	-1308
▁Sp	-1309
astern	-1310
▁exper	-1311
▁French	-1312
▁my	-1313
side	-1314
▁career	-1315
▁similar	-1316
▁One	-1317
▁recorded	-1318
▁English	-1319
uss	-1320
▁side	-1321
▁right	-1322
rown	-1323
▁Pe	-1324
ined	-1325
let	-1326
▁cr	-1327
▁init	-1328
▁import	-1329
▁Or	-1330
▁real	-1331
▁claim	-1332
que	-1333
▁Batt	-1334
▁company	-1335
ai	-1336
▁cover	-1337
▁published	-1338
▁deb	-1339
▁continued	-1340
rew	-1341
arn	-1342
idge	-1343
▁you	-1344
▁refer	-1345
▁bas	-1346
▁take	-1347
▁without	-1348
▁Ph	-1349
▁mid	-1350
▁sold	-1351
▁songs	-1352
▁different	-1353
ternational	-1354
▁ant	-1355
▁say	-1356
▁With	-1357
▁town	-1358
▁former	-1359
ior	-1360
▁Comp	-1361
▁held	-1362
▁wind	-1363
uted	-1364
atter	-1365
ister	-1366
▁Acc	-1367
▁among	-1368
ness	-1369
▁memb	-1370
▁level	-1371
lu	-1372
▁tot	-1373
▁arch	-1374
▁road	-1375
ne	-1376
▁tem	-1377
▁polit	-1378
▁field	-1379
ged	-1380
▁defe	-1381
▁written	-1382
arch	-1383
thing	-1384
▁State	-1385
bs	-1386
▁plan	-1387
▁every	-1388
ps	-1389
▁es	-1390
▁Port	-1391
▁half	-1392
alk	-1393
▁21	-1394
ampions	-1395
▁Division	-1396
▁tw	-1397
▁2011	-1398
▁release	-1399
resent	-1400
ves	-1401
iment	-1402
▁Will	-1403
estern	-1404
ead	-1405
▁fun	-1406
▁become	-1407
▁av	-1408
▁mag	-1409
▁2006	-1410
tended	-1411
▁commun	-1412
▁further	-1413
▁According	-1414
ensive	-1415
▁Although	-1416
▁west	-1417
▁church	-1418
▁however	-1419
▁23	-1420
▁days	-1421
▁Canad	-1422
▁strong	-1423
yle	-1424
itar	-1425
▁east	-1426
▁find	-1427
▁version	-1428
roy	-1429
lear	-1430
▁join	-1431
br	-1432
▁&	-1433
bru	-1434
ott	-1435
ried	-1436
▁title	-1437
▁Church	-1438
▁compet	-1439
▁Count	-1440
▁particular	-1441
pite	-1442
mp	-1443
▁low	-1444
▁military	-1445
▁par	-1446
▁del	-1447
par	-1448
▁beh	-1449
rodu	-1450
▁Roman	-1451
▁order	-1452
▁League	-1453
▁author	-1454
▁prop	-1455
▁Min	-1456
▁control	-1457
▁foot	-1458
aly	-1459
thern	-1460
▁Song	-1461
bruary	-1462
outhern	-1463
▁February	-1464
▁Per	-1465
▁Gener	-1466
▁times	-1467
fric	-1468
▁22	-1469
▁gave	-1470
▁less	-1471
▁!	-1472
▁26	-1473
▁sit	-1474
▁members	-1475
▁reported	-1476
raw	-1477
ylan	-1478
▁band	-1479
▁vict	-1480
▁Dylan	-1481
ots	-1482
▁24	-1483
▁Geor	-1484
▁chang	-1485
▁Ab	-1486
▁fore	-1487
▁nort	-1488
▁produced	-1489
ches	-1490
▁2012	-1491
levision	-1492
▁prof	-1493
▁el	-1494
▁total	-1495
augh	-1496
ices	-1497
▁Old	-1498
ailed	-1499
▁Park	-1500
urs	-1501
▁West	-1502
▁stat	-1503
aces	-1504
iety	-1505
line	-1506
▁popular	-1507
▁production	-1508
▁fre	-1509
▁decl	-1510
ception	-1511
▁Bar	-1512
▁tropical	-1513
ront	-1514
▁nov	-1515
hern	-1516
oung	-1517
▁project	-1518
▁sol	-1519
▁forces	-1520
apan	-1521
itions	-1522
▁Japan	-1523
▁point	-1524
▁children	-1525
▁cur	-1526
▁cult	-1527
▁Par	-1528
▁having	-1529
▁include	-1530
reen	-1531
▁obs	-1532
▁critic	-1533
▁histor	-1534
pec	-1535
ler	-1536
▁28	-1537
▁invol	-1538
▁X	-1539
alion	-1540
▁lost	-1541
▁influ	-1542
ering	-1543
▁given	-1544
▁want	-1545
▁Ass	-1546
inc	-1547
ression	-1548
▁country	-1549
sh	-1550
▁fr	-1551
▁fire	-1552
▁signific	-1553
▁represent	-1554
▁manag	-1555
ape	-1556
ize	-1557
omen	-1558
▁2013	-1559
chn	-1560
▁Sim	-1561
omet	-1562
▁seen	-1563
▁site	-1564
osp	-1565
▁Des	-1566
▁eight	-1567
▁program	-1568
▁Am	-1569
vers	-1570
▁never	-1571
▁making	-1572
▁far	-1573
▁Miss	-1574
▁establ	-1575
▁stated	-1576
▁Ed	-1577
▁det	-1578
▁comb	-1579
▁Afric	-1580
▁press	-1581
▁General	-1582
▁body	-1583
▁should	-1584
▁aff	-1585
▁Cent	-1586
▁While	-1587
▁match	-1588
ither	-1589
▁fact	-1590
ploy	-1591
▁returned	-1592
reet	-1593
▁Dav	-1594
▁pat	-1595
ising	-1596
▁University	-1597
rent	-1598
▁fem	-1599
craft	-1600
enc	-1601
▁ord	-1602
▁ft	-1603
ours	-1604
▁Pol	-1605
▁post	-1606
▁190	-1607
▁These	-1608
▁America	-1609
▁Ear	-1610
▁ships	-1611
▁established	-1612
sequ	-1613
▁how	-1614
▁earl	-1615
▁sound	-1616
▁island	-1617
ampionship	-1618
▁announ	-1619
▁population	-1620
▁Ste	-1621
▁equ	-1622
▁struct	-1623
▁reached	-1624
▁Jack	-1625
▁chart	-1626
▁50	-1627
ably	-1628
ades	-1629
▁Ire	-1630
▁soc	-1631
▁away	-1632
▁noted	-1633
▁Ireland	-1634
▁Ha	-1635
▁Air	-1636
igade	-1637
play	-1638
▁too	-1639
ope	-1640
▁god	-1641
▁across	-1642
▁friend	-1643
▁ground	-1644
▁thought	-1645
▁developed	-1646
▁throughout	-1647
▁Ev	-1648
▁light	-1649
ox	-1650
fic	-1651
▁seven	-1652
me	-1653
▁27	-1654
▁gen	-1655
ondon	-1656
▁London	-1657
▁introdu	-1658
▁div	-1659
▁using	-1660
▁himself	-1661
ground	-1662
▁development	-1663
▁Ne	-1664
▁William	-1665
▁good	-1666
▁destroy	-1667
▁la	-1668
▁Feder	-1669
aint	-1670
ford	-1671
▁hig	-1672
▁lim	-1673
ument	-1674
ese	-1675
most	-1676
▁Mich	-1677
▁felt	-1678
▁significant	-1679
reek	-1680
used	-1681
▁Australia	-1682
yn	-1683
ctor	-1684
idence	-1685
ological	-1686
▁performed	-1687
▁important	-1688
▁cast	-1689
amb	-1690
work	-1691
▁pra	-1692
▁writing	-1693
▁Atl	-1694
▁miles	-1695
arr	-1696
ords	-1697
▁cou	-1698
▁father	-1699
▁television	-1700
int	-1701
oon	-1702
ream	-1703
▁ide	-1704
▁Black	-1705
▁various	-1706
▁interest	-1707
atic	-1708
ivil	-1709
▁areas	-1710
▁human	-1711
imately	-1712
▁tour	-1713
▁black	-1714
▁night	-1715
ones	-1716
▁typ	-1717
▁died	-1718
▁full	-1719
utes	-1720
▁look	-1721
▁prot	-1722
▁went	-1723
ket	-1724
aren	-1725
▁rad	-1726
▁wat	-1727
▁Char	-1728
▁Rich	-1729
▁activ	-1730
▁white	-1731
▁does	-1732
▁successful	-1733
aign	-1734
▁Rober	-1735
▁events	-1736
▁Reg	-1737
▁need	-1738
ief	-1739
▁law	-1740
▁Road	-1741
aul	-1742
▁players	-1743
▁started	-1744
ges	-1745
▁Roy	-1746
▁James	-1747
▁modern	-1748
▁mm	-1749
▁ten	-1750
▁discover	-1751
▁see	-1752
▁feet	-1753
▁formed	-1754
▁cor	-1755
itive	-1756
▁poem	-1757
tain	-1758
antic	-1759
▁range	-1760
▁conv	-1761
▁County	-1762
▁performance	-1763
ung	-1764
▁mix	-1765
▁house	-1766
▁style	-1767
▁building	-1768
▁relations	-1769
▁ball	-1770
▁caused	-1771
▁cat	-1772
▁force	-1773
na	-1774
▁age	-1775
▁prim	-1776
▁read	-1777
▁put	-1778
ald	-1779
ster	-1780
▁Mount	-1781
▁El	-1782
▁Su	-1783
▁You	-1784
▁trav	-1785
▁vill	-1786
ration	-1787
▁techn	-1788
▁cy	-1789
alth	-1790
▁created	-1791
af	-1792
ael	-1793
ico	-1794
▁189	-1795
▁Pal	-1796
▁novel	-1797
▁official	-1798
con	-1799
▁2004	-1800
ublic	-1801
▁2005	-1802
▁suff	-1803
▁entire	-1804
isc	-1805
ogn	-1806
ush	-1807
▁To	-1808
▁ke	-1809
▁able	-1810
▁political	-1811
ec	-1812
ask	-1813
ourn	-1814
▁characters	-1815
▁get	-1816
▁sum	-1817
▁coast	-1818
▁relig	-1819
▁others	-1820
▁Mag	-1821
▁High	-1822
▁construction	-1823
omb	-1824
abor	-1825
aves	-1826
▁bird	-1827
▁begin	-1828
oll	-1829
iness	-1830
▁occur	-1831
ring	-1832
▁pit	-1833
▁pri	-1834
▁son	-1835
epend	-1836
▁Town	-1837
▁cert	-1838
day	-1839
▁Gl	-1840
ying	-1841
ressed	-1842
▁once	-1843
▁Ang	-1844
ample	-1845
▁remained	-1846
▁located	-1847
rest	-1848
▁ste	-1849
asing	-1850
isted	-1851
iting	-1852
▁Care	-1853
▁surv	-1854
▁becom	-1855
▁mount	-1856
ination	-1857
▁battle	-1858
▁promot	-1859
fall	-1860
▁Cor	-1861
▁lik	-1862
▁tro	-1863
ficult	-1864
▁works	-1865
▁scored	-1866
▁Kingdom	-1867
▁national	-1868
▁difficult	-1869
ected	-1870
▁Hist	-1871
▁produc	-1872
▁red	-1873
▁meet	-1874
▁Island	-1875
▁campaign	-1876
▁announced	-1877
▁completed	-1878
▁tradition	-1879
▁Australian	-1880
▁Cal	-1881
▁Sec	-1882
▁Som	-1883
▁rank	-1884
uck	-1885
▁stars	-1886
▁region	-1887
ator	-1888
▁fig	-1889
▁guns	-1890
▁hold	-1891
▁rock	-1892
▁Cup	-1893
▁Mor	-1894
▁redu	-1895
▁Company	-1896
rie	-1897
▁sk	-1898
iers	-1899
▁little	-1900
▁process	-1901
hem	-1902
▁Rec	-1903
▁fav	-1904
▁goal	-1905
▁help	-1906
▁fight	-1907
▁highway	-1908
▁instead	-1909
irc	-1910
ivid	-1911
▁tre	-1912
▁val	-1913
▁grow	-1914
▁pred	-1915
▁added	-1916
▁gl	-1917
ament	-1918
itted	-1919
rought	-1920
▁Ol	-1921
▁let	-1922
▁cross	-1923
▁least	-1924
▁followed	-1925
▁31	-1926
ounc	-1927
▁fac	-1928
▁peak	-1929
▁front	-1930
▁appeared	-1931
▁Ke	-1932
quad	-1933
▁rev	-1934
▁born	-1935
▁know	-1936
▁killed	-1937
leet	-1938
▁months	-1939
▁originally	-1940
reg	-1941
▁er	-1942
▁Army	-1943
▁wife	-1944
elling	-1945
▁comment	-1946
orse	-1947
▁David	-1948
▁southern	-1949
oice	-1950
▁cas	-1951
▁Bill	-1952
▁loss	-1953
▁Grand	-1954
enth	-1955
ries	-1956
▁Ham	-1957
▁fif	-1958
▁nuc	-1959
ality	-1960
enced	-1961
▁hurricane	-1962
▁women	-1963
▁associ	-1964
▁agre	-1965
▁Music	-1966
▁ident	-1967
▁eastern	-1968
bo	-1969
▁29	-1970
angu	-1971
▁relationship	-1972
▁2003	-1973
▁mass	-1974
▁critics	-1975
off	-1976
▁Some	-1977
▁accom	-1978
▁France	-1979
▁mother	-1980
▁eventually	-1981
acy	-1982
▁40	-1983
▁185	-1984
▁award	-1985
▁features	-1986
gr	-1987
idd	-1988
lect	-1989
▁bus	-1990
▁2015	-1991
▁Other	-1992
field	-1993
▁live	-1994
▁broad	-1995
com	-1996
▁aud	-1997
▁anim	-1998
▁cond	-1999
▁young	-2000
app	-2001
ray	-2002
▁cell	-2003
▁stri	-2004
▁route	-2005
▁taken	-2006
▁appoin	-2007
▁fourth	-2008
▁recogn	-2009
▁Two	-2010
▁served	-2011
here	-2012
▁bar	-2013
▁Ex	-2014
ully	-2015
emy	-2016
ota	-2017
▁estim	-2018
▁damage	-2019
▁profess	-2020
antry	-2021
▁lack	-2022
arliam	-2023
▁heavy	-2024
▁sw	-2025
inal	-2026
ique	-2027
▁sex	-2028
▁base	-2029
▁either	-2030
▁decided	-2031
▁Battalion	-2032
▁voc	-2033
osaur	-2034
▁Love	-2035
▁aver	-2036
▁proble	-2037
▁Sw	-2038
olution	-2039
▁behind	-2040
▁commer	-2041
▁condom	-2042
aper	-2043
azine	-2044
gether	-2045
▁believed	-2046
▁together	-2047
▁mor	-2048
▁separ	-2049
▁Robert	-2050
chie	-2051
▁arg	-2052
▁super	-2053
ille	-2054
▁God	-2055
ought	-2056
▁Carey	-2057
▁individ	-2058
▁playing	-2059
arliament	-2060
▁ve	-2061
▁impro	-2062
igned	-2063
ization	-2064
ouncil	-2065
▁Royal	-2066
▁creat	-2067
▁example	-2068
▁special	-2069
▁188	-2070
▁Mon	-2071
▁clos	-2072
▁move	-2073
▁close	-2074
▁almost	-2075
▁accept	-2076
lo	-2077
hys	-2078
▁Mex	-2079
▁quar	-2080
ements	-2081
▁leading	-2082
▁European	-2083
mar	-2084
cial	-2085
▁ask	-2086
▁burn	-2087
▁langu	-2088
▁Federer	-2089
▁service	-2090
▁generally	-2091
aching	-2092
▁mater	-2093
▁round	-2094
▁opened	-2095
▁towards	-2096
▁elements	-2097
▁hy	-2098
▁arm	-2099
▁fall	-2100
urb	-2101
▁Ber	-2102
▁Ser	-2103
▁dou	-2104
▁sour	-2105
▁weeks	-2106
▁Brigade	-2107
▁brought	-2108
▁non	-2109
▁miss	-2110
iction	-2111
▁finished	-2112
▁International	-2113
▁Cr	-2114
▁Ir	-2115
▁ce	-2116
▁ra	-2117
illa	-2118
rict	-2119
▁circ	-2120
▁laun	-2121
▁Wales	-2122
ceed	-2123
▁saw	-2124
icated	-2125
▁study	-2126
▁featured	-2127
▁Viet	-2128
▁host	-2129
▁respect	-2130
▁aircraft	-2131
▁Flor	-2132
iation	-2133
▁regular	-2134
ida	-2135
▁enc	-2136
▁draw	-2137
ests	-2138
iron	-2139
▁vol	-2140
▁White	-2141
▁points	-2142
▁general	-2143
ned	-2144
read	-2145
ston	-2146
ways	-2147
▁Hen	-2148
▁Part	-2149
▁rese	-2150
etwork	-2151
▁elect	-2152
▁contract	-2153
▁directed	-2154
ze	-2155
▁central	-2156
▁provided	-2157
▁Championship	-2158
hic	-2159
ordan	-2160
▁meas	-2161
▁action	-2162
val	-2163
▁35	-2164
▁Sy	-2165
▁Act	-2166
▁Har	-2167
▁Play	-2168
▁fund	-2169
▁upon	-2170
ography	-2171
▁inform	-2172
▁director	-2173
iol	-2174
▁Game	-2175
▁mean	-2176
▁wall	-2177
▁appearance	-2178
eum	-2179
umb	-2180
▁186	-2181
▁Bro	-2182
▁wid	-2183
▁East	-2184
▁coll	-2185
▁Follow	-2186
▁Jordan	-2187
▁earlier	-2188
▁mi	-2189
ency	-2190
odes	-2191
▁From	-2192
▁Thom	-2193
▁yard	-2194
▁2014	-2195
▁Pres	-2196
▁king	-2197
▁sequ	-2198
▁flood	-2199
▁female	-2200
▁rather	-2201
▁Atlantic	-2202
bit	-2203
ino	-2204
irl	-2205
medi	-2206
▁indust	-2207
▁troops	-2208
▁current	-2209
▁Du	-2210
▁largest	-2211
▁victory	-2212
▁Following	-2213
▁Jew	-2214
▁dev	-2215
▁ren	-2216
oring	-2217
▁reve	-2218
▁George	-2219
▁employ	-2220
▁manager	-2221
▁subsequ	-2222
▁Christian	-2223
▁operations	-2224
▁particularly	-2225
ming	-2226
▁Day	-2227
▁Mad	-2228
▁Hero	-2229
▁cost	-2230
▁House	-2231
▁achie	-2232
oid	-2233
ude	-2234
cher	-2235
uter	-2236
▁Rep	-2237
▁Mary	-2238
▁wanted	-2239
▁opening	-2240
stit	-2241
▁beg	-2242
▁condu	-2243
mb	-2244
eler	-2245
orts	-2246
▁Red	-2247
▁yards	-2248
▁evidence	-2249
iber	-2250
ouri	-2251
▁cut	-2252
▁exc	-2253
▁prob	-2254
ounter	-2255
▁river	-2256
▁reason	-2257
▁Command	-2258
▁Florida	-2259
▁northern	-2260
▁insp	-2261
▁stage	-2262
▁member	-2263
cast	-2264
▁500	-2265
ength	-2266
▁Rock	-2267
▁crew	-2268
▁Street	-2269
▁engine	-2270
▁allowed	-2271
▁outside	-2272
▁possible	-2273
oo	-2274
▁bi	-2275
▁foc	-2276
▁stren	-2277
▁saying	-2278
sel	-2279
▁Med	-2280
▁ill	-2281
ellow	-2282
▁Oliv	-2283
ania	-2284
▁hit	-2285
cript	-2286
erous	-2287
▁whom	-2288
atural	-2289
▁hours	-2290
anch	-2291
west	-2292
conom	-2293
▁case	-2294
ential	-2295
▁nomin	-2296
ators	-2297
▁2001	-2298
▁fort	-2299
▁deter	-2300
▁exist	-2301
▁regard	-2302
▁worked	-2303
▁account	-2304
▁Missouri	-2305
alt	-2306
▁Od	-2307
▁Most	-2308
▁pract	-2309
▁streng	-2310
ama	-2311
eal	-2312
atin	-2313
▁Bra	-2314
▁mot	-2315
▁length	-2316
▁territ	-2317
▁respons	-2318
▁working	-2319
▁My	-2320
cent	-2321
▁news	-2322
▁Gal	-2323
▁reb	-2324
board	-2325
artment	-2326
osition	-2327
▁material	-2328
ata	-2329
▁bur	-2330
▁gold	-2331
▁mach	-2332
▁poor	-2333
▁designed	-2334
ump	-2335
▁Bay	-2336
▁neg	-2337
▁rul	-2338
▁Paul	-2339
▁Tech	-2340
▁free	-2341
▁love	-2342
▁seem	-2343
ault	-2344
thod	-2345
▁Wal	-2346
▁stay	-2347
anding	-2348
▁praised	-2349
uel	-2350
▁Co	-2351
ights	-2352
▁Mark	-2353
ishing	-2354
▁First	-2355
▁avail	-2356
▁Indian	-2357
▁forced	-2358
▁remains	-2359
▁football	-2360
ores	-2361
▁187	-2362
▁1970	-2363
▁Best	-2364
▁Phil	-2365
ana	-2366
▁bill	-2367
▁think	-2368
▁winds	-2369
▁Michael	-2370
▁station	-2371
less	-2372
▁Wil	-2373
▁cop	-2374
▁goals	-2375
▁quick	-2376
▁treat	-2377
▁increased	-2378
aps	-2379
▁di	-2380
ened	-2381
heast	-2382
▁past	-2383
▁previously	-2384
ago	-2385
ica	-2386
ius	-2387
gypt	-2388
vest	-2389
▁gre	-2390
▁Egypt	-2391
▁above	-2392
▁replaced	-2393
gg	-2394
ule	-2395
xas	-2396
vert	-2397
▁But	-2398
▁Cap	-2399
▁soon	-2400
▁invest	-2401
▁Richard	-2402
▁ly	-2403
▁Bus	-2404
▁viol	-2405
▁civil	-2406
▁Despite	-2407
▁business	-2408
▁hon	-2409
▁interview	-2410
▁mer	-2411
▁2000	-2412
ession	-2413
▁Henry	-2414
ributed	-2415
▁threat	-2416
▁writer	-2417
▁commercial	-2418
hens	-2419
irth	-2420
▁mph	-2421
asion	-2422
erved	-2423
▁Hill	-2424
▁units	-2425
▁Canada	-2426
▁estimated	-2427
ara	-2428
▁Que	-2429
▁San	-2430
▁esc	-2431
anned	-2432
▁1990	-2433
▁clear	-2434
▁quarter	-2435
▁Kh	-2436
▁pain	-2437
▁somet	-2438
▁joined	-2439
▁claimed	-2440
▁highest	-2441
▁Japanese	-2442
utive	-2443
▁situ	-2444
▁surf	-2445
▁trib	-2446
▁Brown	-2447
▁Oldham	-2448
▁placed	-2449
▁involved	-2450
▁specific	-2451
wh	-2452
ye	-2453
▁z	-2454
▁lo	-2455
▁must	-2456
▁Times	-2457
▁signed	-2458
▁discuss	-2459
▁President	-2460
▁suggested	-2461
▁Dep	-2462
▁Tor	-2463
▁Vir	-2464
▁court	-2465
▁parts	-2466
▁react	-2467
oms	-2468
▁183	-2469
▁intens	-2470
▁Olivier	-2471
▁western	-2472
BC	-2473
clus	-2474
iter	-2475
▁priv	-2476
▁Carol	-2477
▁Vietn	-2478
▁itself	-2479
▁league	-2480
▁proper	-2481
▁Dr	-2482
wood	-2483
▁Cro	-2484
▁Whe	-2485
istic	-2486
▁pers	-2487
▁India	-2488
▁Later	-2489
▁Mexico	-2490
▁object	-2491
▁average	-2492
tt	-2493
thlet	-2494
▁Arab	-2495
▁shot	-2496
▁contr	-2497
▁change	-2498
▁taking	-2499
▁available	-2500
olic	-2501
▁McC	-2502
osing	-2503
▁come	-2504
▁cycl	-2505
ington	-2506
▁scene	-2507
▁Govern	-2508
▁School	-2509
▁introduced	-2510
▁Im	-2511
ving	-2512
▁fly	-2513
▁term	-2514
▁whose	-2515
▁village	-2516
▁recording	-2517
▁transport	-2518
ita	-2519
now	-2520
▁Val	-2521
▁inj	-2522
achel	-2523
▁Cong	-2524
▁heav	-2525
▁hous	-2526
▁Thomas	-2527
▁brother	-2528
▁transfer	-2529
bor	-2530
nes	-2531
▁Var	-2532
▁Hall	-2533
▁Irish	-2534
ximately	-2535
▁religious	-2536
quar	-2537
▁pen	-2538
ready	-2539
▁race	-2540
lected	-2541
porary	-2542
▁break	-2543
ibility	-2544
▁travel	-2545
AF	-2546
▁36	-2547
band	-2548
onst	-2549
▁Pac	-2550
▁don	-2551
acing	-2552
▁1960	-2553
▁slow	-2554
▁told	-2555
▁shows	-2556
▁Britain	-2557
▁damaged	-2558
▁network	-2559
▁-	-2560
lic	-2561
abit	-2562
▁Hel	-2563
rated	-2564
▁Card	-2565
▁exec	-2566
▁rail	-2567
▁stop	-2568
pected	-2569
▁names	-2570
▁remov	-2571
▁turned	-2572
▁Republic	-2573
▁increasing	-2574
▁Sun	-2575
▁That	-2576
▁give	-2577
▁mult	-2578
▁lines	-2579
▁subject	-2580
▁Hurricane	-2581
ett	-2582
▁Many	-2583
▁nine	-2584
▁Great	-2585
▁Guitar	-2586
▁Scient	-2587
▁defend	-2588
▁nearly	-2589
▁despite	-2590
▁appointed	-2591
▁Sm	-2592
oney	-2593
▁Not	-2594
▁pie	-2595
▁Zeal	-2596
▁feel	-2597
▁size	-2598
▁Zealand	-2599
▁complet	-2600
▁community	-2601
▁structure	-2602
▁op	-2603
elled	-2604
▁date	-2605
▁diss	-2606
▁educ	-2607
▁hard	-2608
▁phys	-2609
▁econom	-2610
▁passed	-2611
▁independ	-2612
▁surround	-2613
▁NY	-2614
▁Mac	-2615
▁pur	-2616
iding	-2617
ronic	-2618
▁Gold	-2619
▁Union	-2620
▁liter	-2621
ruction	-2622
pecially	-2623
▁certain	-2624
▁establish	-2625
▁initially	-2626
▁international	-2627
head	-2628
▁184	-2629
▁grad	-2630
▁going	-2631
▁withd	-2632
▁immedi	-2633
▁social	-2634
▁already	-2635
ume	-2636
▁60	-2637
▁Ac	-2638
anna	-2639
▁Rou	-2640
▁rap	-2641
inese	-2642
▁chap	-2643
▁deal	-2644
▁Early	-2645
▁Super	-2646
▁might	-2647
▁archae	-2648
▁assist	-2649
▁failed	-2650
▁Chinese	-2651
▁display	-2652
▁winning	-2653
▁45	-2654
▁Ever	-2655
▁type	-2656
hedral	-2657
▁occup	-2658
▁score	-2659
▁states	-2660
▁Pacific	-2661
▁capital	-2662
▁language	-2663
▁probably	-2664
▁training	-2665
▁according	-2666
▁especially	-2667
iff	-2668
▁Em	-2669
▁doc	-2670
arily	-2671
▁2002	-2672
▁Mont	-2673
▁food	-2674
▁Colle	-2675
▁debut	-2676
▁issue	-2677
▁minor	-2678
▁forest	-2679
for	-2680
urt	-2681
aled	-2682
▁III	-2683
▁Pre	-2684
▁fut	-2685
▁male	-2686
▁test	-2687
▁wood	-2688
▁daugh	-2689
▁studio	-2690
▁Os	-2691
rick	-2692
ties	-2693
▁Mos	-2694
▁tow	-2695
▁conn	-2696
▁spent	-2697
▁History	-2698
▁Wheeler	-2699
▁arrived	-2700
▁ordered	-2701
▁includes	-2702
▁Ag	-2703
▁Sl	-2704
pper	-2705
▁Jin	-2706
▁Film	-2707
▁army	-2708
▁visit	-2709
▁Awards	-2710
▁enough	-2711
▁Canadian	-2712
▁particip	-2713
▁remaining	-2714
onse	-2715
▁mem	-2716
odies	-2717
▁Cath	-2718
▁Navy	-2719
▁fail	-2720
▁mixed	-2721
▁forward	-2722
▁sometimes	-2723
ula	-2724
▁UK	-2725
▁cru	-2726
atory	-2727
▁Peter	-2728
▁reviews	-2729
▁complete	-2730
▁required	-2731
▁approximately	-2732
ays	-2733
nel	-2734
fect	-2735
▁Res	-2736
▁pot	-2737
aries	-2738
ulated	-2739
▁Creek	-2740
▁latter	-2741
▁Don	-2742
▁abs	-2743
▁Rose	-2744
▁Sing	-2745
▁rain	-2746
ference	-2747
ilities	-2748
▁Africa	-2749
▁Associ	-2750
▁center	-2751
▁remain	-2752
▁beginning	-2753
hib	-2754
ulf	-2755
▁Law	-2756
▁Angel	-2757
▁block	-2758
eth	-2759
ateg	-2760
▁anti	-2761
tation	-2762
▁lower	-2763
▁limited	-2764
▁decision	-2765
ste	-2766
chol	-2767
enes	-2768
▁Art	-2769
▁changes	-2770
▁usually	-2771
▁Regiment	-2772
▁additional	-2773
▁Mo	-2774
ites	-2775
rian	-2776
▁Jer	-2777
▁den	-2778
▁indic	-2779
▁journ	-2780
▁Rachel	-2781
▁Virgin	-2782
▁better	-2783
▁running	-2784
▁response	-2785
▁president	-2786
itz	-2787
▁Soc	-2788
▁key	-2789
▁ended	-2790
▁larger	-2791
▁positive	-2792
▁students	-2793
▁Nort	-2794
▁dead	-2795
▁woman	-2796
quadron	-2797
▁mention	-2798
▁magazine	-2799
▁supported	-2800
lymp	-2801
rics	-2802
▁Penn	-2803
▁Stud	-2804
▁Award	-2805
▁Olymp	-2806
▁Scott	-2807
▁notes	-2808
▁touch	-2809
▁police	-2810
▁pressure	-2811
▁depression	-2812
aval	-2813
▁Ver	-2814
▁cal	-2815
▁poet	-2816
▁wide	-2817
▁birds	-2818
▁amount	-2819
▁Charles	-2820
gl	-2821
edy	-2822
enty	-2823
▁1995	-2824
▁quest	-2825
▁shown	-2826
▁prevent	-2827
▁Billboard	-2828
aph	-2829
aker	-2830
ases	-2831
▁space	-2832
▁future	-2833
▁related	-2834
▁38	-2835
back	-2836
▁1980	-2837
▁fifth	-2838
▁provide	-2839
▁defeated	-2840
go	-2841
rd	-2842
arm	-2843
▁TV	-2844
▁Pri	-2845
▁Tom	-2846
▁hom	-2847
stant	-2848
▁face	-2849
uments	-2850
▁discovered	-2851
ih	-2852
tr	-2853
leg	-2854
owl	-2855
▁Ter	-2856
▁syn	-2857
▁Fort	-2858
▁Route	-2859
▁staff	-2860
▁temper	-2861
▁feature	-2862
men	-2863
▁80	-2864
▁anc	-2865
▁prior	-2866
▁becoming	-2867
co	-2868
ids	-2869
ifa	-2870
irt	-2871
ands	-2872
uals	-2873
▁aut	-2874
▁doll	-2875
▁birth	-2876
▁cm	-2877
▁Off	-2878
riage	-2879
▁exam	-2880
mitted	-2881
▁frequ	-2882
▁Western	-2883
▁section	-2884
▁smaller	-2885
aby	-2886
onc	-2887
bert	-2888
gely	-2889
inct	-2890
▁App	-2891
▁disp	-2892
▁idea	-2893
idents	-2894
▁groups	-2895
▁screen	-2896
▁intended	-2897
▁Scientology	-2898
unk	-2899
▁Inf	-2900
aring	-2901
ishop	-2902
stein	-2903
selves	-2904
▁Frank	-2905
▁Haifa	-2906
▁metres	-2907
▁mostly	-2908
▁conclud	-2909
▁percent	-2910
▁themselves	-2911
aut	-2912
ney	-2913
agon	-2914
▁Hot	-2915
▁Tur	-2916
anies	-2917
orial	-2918
quare	-2919
▁2016	-2920
▁Star	-2921
▁Year	-2922
▁fleet	-2923
▁likely	-2924
▁minutes	-2925
▁surface	-2926
▁captured	-2927
▁referred	-2928
▁research	-2929
▁La	-2930
enon	-2931
rief	-2932
▁fir	-2933
ching	-2934
iforn	-2935
▁word	-2936
▁Croat	-2937
▁Since	-2938
▁domin	-2939
▁office	-2940
▁largely	-2941
▁musical	-2942
▁problems	-2943
▁Association	-2944
▁professional	-2945
▁75	-2946
▁FI	-2947
down	-2948
rael	-2949
▁flow	-2950
▁Light	-2951
▁Under	-2952
▁media	-2953
▁entered	-2954
▁Parliament	-2955
ee	-2956
gar	-2957
▁sem	-2958
▁makes	-2959
▁contem	-2960
▁moving	-2961
▁broadcast	-2962
omm	-2963
ners	-2964
▁Sov	-2965
▁cer	-2966
▁der	-2967
▁emb	-2968
▁learn	-2969
▁radio	-2970
▁Portug	-2971
quarters	-2972
▁contains	-2973
▁constructed	-2974
gu	-2975
uk	-2976
oul	-2977
sec	-2978
▁ens	-2979
▁1999	-2980
▁Oper	-2981
▁keep	-2982
▁link	-2983
▁summer	-2984
▁Californ	-2985
uf	-2986
▁Je	-2987
bers	-2988
ises	-2989
ples	-2990
pped	-2991
▁Russ	-2992
▁cele	-2993
▁pair	-2994
▁money	-2995
▁guitar	-2996
▁effects	-2997
to	-2998
ios	-2999
cean	-3000
ergy	-3001
itte	-3002
▁How	-3003
▁sea	-3004
anish	-3005
ville	-3006
▁1950	-3007
isions	-3008
▁Earth	-3009
▁grant	-3010
▁voice	-3011
▁Israel	-3012
▁Jewish	-3013
▁listed	-3014
▁nature	-3015
▁observ	-3016
▁ranked	-3017
▁Council	-3018
▁stories	-3019
▁majority	-3020
▁lay	-3021
▁adop	-3022
▁self	-3023
veston	-3024
▁paren	-3025
▁arrang	-3026
▁create	-3027
▁Galveston	-3028
▁experience	-3029
den	-3030
uing	-3031
▁Met	-3032
▁Ott	-3033
eding	-3034
under	-3035
▁Wood	-3036
▁leaving	-3037
▁critical	-3038
▁Chic	-3039
▁thus	-3040
▁favor	-3041
▁primary	-3042
lor	-3043
ylv	-3044
ires	-3045
▁dro	-3046
owler	-3047
urity	-3048
▁gods	-3049
minist	-3050
▁lived	-3051
▁schol	-3052
▁agreed	-3053
▁always	-3054
▁lyrics	-3055
▁Another	-3056
▁consist	-3057
▁location	-3058
▁Go	-3059
aven	-3060
iest	-3061
reak	-3062
teen	-3063
▁Fin	-3064
▁lab	-3065
▁pay	-3066
imate	-3067
▁rare	-3068
▁runs	-3069
▁brief	-3070
▁compl	-3071
▁films	-3072
▁controll	-3073
▁launched	-3074
▁officers	-3075
▁California	-3076
tar	-3077
ping	-3078
pool	-3079
▁Bey	-3080
▁Camp	-3081
▁Serv	-3082
▁coin	-3083
▁sett	-3084
▁colon	-3085
▁teams	-3086
osaurus	-3087
▁culture	-3088
▁friends	-3089
▁quickly	-3090
▁Catholic	-3091
▁Hol	-3092
▁Brad	-3093
change	-3094
hester	-3095
▁meant	-3096
▁minute	-3097
▁episodes	-3098
▁occurred	-3099
▁proposed	-3100
key	-3101
oke	-3102
oor	-3103
pan	-3104
ror	-3105
urg	-3106
▁If	-3107
▁Up	-3108
arts	-3109
▁Ale	-3110
▁prem	-3111
▁equip	-3112
▁access	-3113
▁settle	-3114
▁attract	-3115
▁whether	-3116
▁assigned	-3117
▁increase	-3118
zy	-3119
kan	-3120
▁sat	-3121
▁vot	-3122
affic	-3123
▁adap	-3124
▁fans	-3125
▁pian	-3126
illery	-3127
▁Saint	-3128
▁forms	-3129
atively	-3130
▁defeat	-3131
▁appears	-3132
▁changed	-3133
▁traffic	-3134
ification	-3135
▁destroyed	-3136
▁Mr	-3137
imum	-3138
▁400	-3139
▁Nic	-3140
▁Nix	-3141
▁tons	-3142
▁earth	-3143
ability	-3144
ospital	-3145
▁longer	-3146
▁script	-3147
▁Central	-3148
▁Chicago	-3149
▁meaning	-3150
▁commission	-3151
asy	-3152
▁70	-3153
▁job	-3154
▁1940	-3155
▁Ross	-3156
▁theme	-3157
▁Battle	-3158
▁concern	-3159
▁numbers	-3160
▁soldiers	-3161
▁competition	-3162
sis	-3163
vey	-3164
aded	-3165
onym	-3166
ruit	-3167
▁Haw	-3168
▁mom	-3169
andon	-3170
▁Alice	-3171
▁bound	-3172
▁focus	-3173
▁leave	-3174
▁reach	-3175
▁trade	-3176
▁celebr	-3177
▁awarded	-3178
▁carried	-3179
▁Northern	-3180
▁33	-3181
▁Qu	-3182
▁hop	-3183
▁1998	-3184
▁girl	-3185
undred	-3186
▁Enter	-3187
▁Latin	-3188
▁private	-3189
▁daughter	-3190
▁conducted	-3191
bery	-3192
▁Lou	-3193
▁sil	-3194
▁Over	-3195
▁cred	-3196
▁deep	-3197
▁newsp	-3198
▁natural	-3199
▁records	-3200
▁underst	-3201
▁subsequently	-3202
▁300	-3203
▁Mey	-3204
▁ran	-3205
▁unc	-3206
ortun	-3207
▁1930	-3208
▁Scot	-3209
▁Villa	-3210
▁analy	-3211
▁cause	-3212
▁plans	-3213
▁tourn	-3214
▁consider	-3215
▁fighting	-3216
zz	-3217
ari	-3218
iva	-3219
oir	-3220
▁Dj	-3221
▁Mer	-3222
▁ded	-3223
itect	-3224
▁1993	-3225
▁bord	-3226
▁Alkan	-3227
▁shoot	-3228
▁takes	-3229
▁Polish	-3230
▁Second	-3231
▁overall	-3232
▁industry	-3233
▁commented	-3234
▁influence	-3235
▁Ma	-3236
ruct	-3237
▁Pat	-3238
▁cle	-3239
ption	-3240
▁Fore	-3241
▁Ital	-3242
▁bomb	-3243
usband	-3244
▁Liver	-3245
▁Nixon	-3246
▁asked	-3247
▁bring	-3248
▁concert	-3249
▁finally	-3250
▁serious	-3251
▁election	-3252
▁Liverpool	-3253
▁32	-3254
▁Tay	-3255
▁deg	-3256
▁imm	-3257
▁kil	-3258
▁Form	-3259
▁emer	-3260
tained	-3261
▁whole	-3262
▁ending	-3263
▁method	-3264
▁greater	-3265
▁compared	-3266
hou	-3267
oly	-3268
sen	-3269
▁BC	-3270
▁Its	-3271
▁done	-3272
▁Sever	-3273
▁Texas	-3274
stitute	-3275
▁double	-3276
▁unable	-3277
▁Christm	-3278
▁married	-3279
▁positions	-3280
well	-3281
▁Tre	-3282
▁inn	-3283
▁our	-3284
aches	-3285
anced	-3286
erset	-3287
inent	-3288
▁Lady	-3289
▁Tour	-3290
▁cann	-3291
▁upper	-3292
▁Somerset	-3293
▁buildings	-3294
umn	-3295
anks	-3296
gian	-3297
ills	-3298
▁che	-3299
▁got	-3300
▁sus	-3301
▁tar	-3302
▁yet	-3303
▁Mart	-3304
▁dram	-3305
▁thick	-3306
▁Mosley	-3307
▁centre	-3308
▁earned	-3309
▁flight	-3310
▁Tropical	-3311
unt	-3312
▁90	-3313
aily	-3314
▁Mil	-3315
▁big	-3316
▁env	-3317
▁1996	-3318
▁Cour	-3319
▁acqu	-3320
▁Busch	-3321
▁Three	-3322
▁nucle	-3323
▁party	-3324
▁rapid	-3325
▁begins	-3326
▁issued	-3327
▁living	-3328
▁counter	-3329
▁personal	-3330
▁standard	-3331
gen	-3332
▁Str	-3333
▁box	-3334
▁log	-3335
ittee	-3336
▁Tenn	-3337
▁kind	-3338
▁purch	-3339
▁terms	-3340
▁throw	-3341
▁marked	-3342
▁market	-3343
▁directly	-3344
dle	-3345
▁Sk	-3346
ails	-3347
amer	-3348
▁Bel	-3349
▁ult	-3350
▁Lake	-3351
▁hero	-3352
▁books	-3353
▁Taylor	-3354
▁health	-3355
▁scenes	-3356
▁status	-3357
▁Spanish	-3358
▁marriage	-3359
▁movement	-3360
▁Christmas	-3361
▁dom	-3362
▁Back	-3363
▁Fowler	-3364
▁helped	-3365
▁slight	-3366
▁Several	-3367
▁concept	-3368
▁portray	-3369
▁Jo	-3370
umed	-3371
▁und	-3372
▁tell	-3373
istics	-3374
▁sched	-3375
▁batter	-3376
▁experi	-3377
▁African	-3378
▁attacks	-3379
▁planned	-3380
▁schools	-3381
▁starting	-3382
▁suffered	-3383
▁information	-3384
▁traditional	-3385
iser	-3386
itor	-3387
▁Pit	-3388
▁dig	-3389
▁jud	-3390
alled	-3391
▁dark	-3392
▁Storm	-3393
▁speed	-3394
▁figure	-3395
▁giving	-3396
▁Infantry	-3397
▁inspired	-3398
▁associated	-3399
▁performances	-3400
AS	-3401
ma	-3402
▁x	-3403
▁Tw	-3404
▁Sam	-3405
athan	-3406
embly	-3407
itude	-3408
▁Arch	-3409
▁Jane	-3410
▁Party	-3411
▁Soviet	-3412
▁closed	-3413
▁source	-3414
▁abandon	-3415
▁condoms	-3416
▁husband	-3417
▁leaders	-3418
▁machine	-3419
▁division	-3420
▁presented	-3421
awn	-3422
▁mur	-3423
▁via	-3424
▁Foot	-3425
▁Series	-3426
▁raised	-3427
▁initial	-3428
▁determin	-3429
▁greatest	-3430
▁presence	-3431
II	-3432
iant	-3433
mium	-3434
▁Bob	-3435
aught	-3436
▁Vict	-3437
▁room	-3438
▁unit	-3439
▁uses	-3440
▁Cross	-3441
▁Paris	-3442
▁wound	-3443
ylvania	-3444
▁except	-3445
▁nearby	-3446
▁writers	-3447
▁Carolina	-3448
▁Rosebery	-3449
▁Virginia	-3450
▁continue	-3451
▁document	-3452
▁education	-3453
ks	-3454
ken	-3455
raf	-3456
iami	-3457
▁Boy	-3458
▁uns	-3459
▁Live	-3460
▁dism	-3461
▁norm	-3462
▁plot	-3463
▁Penns	-3464
▁image	-3465
itation	-3466
▁covered	-3467
▁cyclone	-3468
▁collection	-3469
olk	-3470
cing	-3471
▁Ant	-3472
▁Ben	-3473
▁Jam	-3474
incip	-3475
▁Just	-3476
▁rein	-3477
▁weap	-3478
▁Queen	-3479
▁chall	-3480
oration	-3481
▁annual	-3482
▁College	-3483
▁complex	-3484
▁hundred	-3485
▁composed	-3486
▁services	-3487
atre	-3488
erve	-3489
eway	-3490
oncé	-3491
▁Cer	-3492
▁Rob	-3493
▁1997	-3494
▁polic	-3495
▁bodies	-3496
▁really	-3497
▁Beyoncé	-3498
▁figures	-3499
▁extended	-3500
▁numerous	-3501
▁producer	-3502
▁cathedral	-3503
▁commander	-3504
▁territory	-3505
bar	-3506
joy	-3507
essa	-3508
etic	-3509
▁Six	-3510
▁tor	-3511
aging	-3512
icted	-3513
▁Open	-3514
▁fell	-3515
▁park	-3516
▁path	-3517
▁Miami	-3518
▁enjoy	-3519
▁Museum	-3520
▁depend	-3521
▁things	-3522
▁vocals	-3523
▁Germany	-3524
▁proteins	-3525
ift	-3526
▁39	-3527
erbe	-3528
▁sev	-3529
anded	-3530
ously	-3531
rical	-3532
▁Club	-3533
▁prep	-3534
▁waters	-3535
▁Nations	-3536
▁operation	-3537
▁something	-3538
anz	-3539
anas	-3540
▁Their	-3541
estival	-3542
▁highly	-3543
▁impact	-3544
▁Service	-3545
▁Through	-3546
▁morning	-3547
▁request	-3548
▁attacked	-3549
▁attempts	-3550
▁investig	-3551
▁strength	-3552
▁companies	-3553
ny	-3554
ses	-3555
▁Ill	-3556
▁Inn	-3557
▁era	-3558
ander	-3559
▁dise	-3560
▁talk	-3561
admium	-3562
▁metal	-3563
▁Prince	-3564
▁aspect	-3565
▁confir	-3566
▁financ	-3567
▁reject	-3568
▁transl	-3569
▁individual	-3570
▁immediately	-3571
▁Pennsylvania	-3572
apo	-3573
lim	-3574
▁Sur	-3575
▁pil	-3576
ademy	-3577
uries	-3578
▁Games	-3579
▁Inter	-3580
▁incor	-3581
▁piano	-3582
▁stone	-3583
▁artist	-3584
▁necess	-3585
▁interse	-3586
▁nuclear	-3587
▁removed	-3588
▁Squadron	-3589
▁allowing	-3590
▁distance	-3591
▁powerful	-3592
▁situation	-3593
NA	-3594
ipp	-3595
mon	-3596
olf	-3597
ibly	-3598
▁Hum	-3599
lands	-3600
vement	-3601
▁Water	-3602
▁habit	-3603
▁inside	-3604
▁needed	-3605
▁peaked	-3606
▁Jackson	-3607
▁advance	-3608
▁offered	-3609
▁recover	-3610
▁studies	-3611
▁variety	-3612
▁Scotland	-3613
▁interact	-3614
▁selected	-3615
▁artillery	-3616
TV	-3617
▁42	-3618
chan	-3619
pted	-3620
▁182	-3621
▁hot	-3622
▁1991	-3623
▁Jose	-3624
▁rate	-3625
▁Chris	-3626
▁Somal	-3627
▁means	-3628
▁attend	-3629
▁copies	-3630
▁native	-3631
▁attempted	-3632
▁countries	-3633
▁headquarters	-3634
ria	-3635
rol	-3636
▁AI	-3637
anta	-3638
pole	-3639
▁Los	-3640
▁saf	-3641
adium	-3642
ether	-3643
imony	-3644
track	-3645
▁kick	-3646
▁purp	-3647
▁China	-3648
▁coach	-3649
▁hands	-3650
▁casual	-3651
▁search	-3652
▁tracks	-3653
ribution	-3654
▁princip	-3655
▁scoring	-3656
▁architect	-3657
▁responsible	-3658
▁respectively	-3659
een	-3660
▁47	-3661
▁Out	-3662
▁Both	-3663
▁mole	-3664
▁purs	-3665
▁rule	-3666
▁symb	-3667
lement	-3668
▁Major	-3669
▁genus	-3670
▁advant	-3671
▁higher	-3672
▁widely	-3673
▁Anderson	-3674
▁describes	-3675
▁touchdown	-3676
▁Department	-3677
▁appearances	-3678
ha	-3679
cer	-3680
cend	-3681
▁Dan	-3682
▁Nor	-3683
andid	-3684
anger	-3685
▁1992	-3686
▁Crit	-3687
▁sets	-3688
▁spir	-3689
▁text	-3690
orship	-3691
▁Braat	-3692
▁Corps	-3693
▁course	-3694
▁sexual	-3695
▁heavily	-3696
▁Football	-3697
▁observed	-3698
▁controvers	-3699
of	-3700
oud	-3701
rey	-3702
▁44	-3703
reme	-3704
▁Are	-3705
▁amb	-3706
ports	-3707
▁1994	-3708
▁Alex	-3709
▁phot	-3710
▁pick	-3711
▁adult	-3712
▁below	-3713
▁xenon	-3714
▁middle	-3715
▁relief	-3716
▁meeting	-3717
▁reduced	-3718
iny	-3719
▁Li	-3720
▁ang	-3721
▁boy	-3722
▁Like	-3723
▁plat	-3724
icient	-3725
nesota	-3726
ricket	-3727
▁sixth	-3728
▁active	-3729
▁intern	-3730
▁secret	-3731
▁singer	-3732
▁matches	-3733
▁administ	-3734
▁audience	-3735
▁resulted	-3736
▁Minnesota	-3737
▁concluded	-3738
ga	-3739
aen	-3740
car	-3741
ils	-3742
lict	-3743
ship	-3744
▁Tem	-3745
▁sal	-3746
akapo	-3747
inkel	-3748
▁Time	-3749
▁true	-3750
▁Franc	-3751
▁lands	-3752
▁Victor	-3753
▁activity	-3754
▁activities	-3755
▁completely	-3756
cts	-3757
send	-3758
▁Del	-3759
▁ess	-3760
isher	-3761
▁Center	-3762
▁managed	-3763
▁stating	-3764
▁Southern	-3765
▁Townsend	-3766
▁opportun	-3767
▁revealed	-3768
▁contemporary	-3769
ems	-3770
ocr	-3771
like	-3772
▁Sea	-3773
▁fill	-3774
▁hour	-3775
atives	-3776
▁Colon	-3777
▁graph	-3778
▁trees	-3779
▁levels	-3780
▁Italian	-3781
▁quality	-3782
▁refused	-3783
▁declared	-3784
▁separate	-3785
gal	-3786
▁pu	-3787
rowd	-3788
▁Bec	-3789
▁Sir	-3790
▁bad	-3791
annel	-3792
iated	-3793
▁Long	-3794
▁Midd	-3795
▁blue	-3796
▁drum	-3797
erbeer	-3798
▁Force	-3799
▁Hawai	-3800
ication	-3801
ologist	-3802
▁Finkel	-3803
▁Because	-3804
▁Walpole	-3805
▁constit	-3806
▁question	-3807
▁Meyerbeer	-3808
▁Finkelstein	-3809
MS	-3810
ify	-3811
iqu	-3812
aped	-3813
▁Sol	-3814
athus	-3815
ining	-3816
peror	-3817
▁Shiva	-3818
▁Tessa	-3819
▁blood	-3820
▁carry	-3821
▁model	-3822
▁shell	-3823
▁today	-3824
▁instit	-3825
▁recent	-3826
▁parents	-3827
▁approach	-3828
▁contrast	-3829
▁featuring	-3830
▁typically	-3831
▁background	-3832
▁historical	-3833
▁university	-3834
oph	-3835
▁51	-3836
▁76	-3837
ares	-3838
▁Yue	-3839
▁ris	-3840
▁Cast	-3841
▁iron	-3842
▁Smith	-3843
▁paper	-3844
▁Nicole	-3845
▁issues	-3846
▁multip	-3847
▁Ottoman	-3848
▁Society	-3849
▁actions	-3850
▁descript	-3851
▁expected	-3852
▁conditions	-3853
hew	-3854
alty	-3855
ican	-3856
oint	-3857
rawn	-3858
utch	-3859
▁Bet	-3860
▁Lit	-3861
▁rhy	-3862
▁tax	-3863
force	-3864
▁Mill	-3865
▁Wild	-3866
▁entr	-3867
▁wing	-3868
▁peace	-3869
▁plays	-3870
▁compos	-3871
▁houses	-3872
▁mainly	-3873
▁weaken	-3874
▁assault	-3875
▁becomes	-3876
▁efforts	-3877
▁attention	-3878
▁reception	-3879
cle	-3880
▁37	-3881
▁Emp	-3882
▁Jim	-3883
▁pow	-3884
▁wit	-3885
ounds	-3886
shire	-3887
▁Balt	-3888
▁emot	-3889
▁subs	-3890
▁webs	-3891
▁brown	-3892
▁grand	-3893
▁offer	-3894
▁vehic	-3895
▁nation	-3896
▁specim	-3897
▁strugg	-3898
ervation	-3899
▁Highway	-3900
▁Braathens	-3901
▁residents	-3902
ado	-3903
isl	-3904
ging	-3905
rate	-3906
▁Dam	-3907
▁lot	-3908
ufact	-3909
▁Hait	-3910
▁magn	-3911
▁narr	-3912
▁sense	-3913
▁consec	-3914
▁titles	-3915
▁calling	-3916
▁actually	-3917
▁soundtrack	-3918
bed	-3919
eds	-3920
het	-3921
ware	-3922
▁Nes	-3923
▁roy	-3924
ellig	-3925
▁Adam	-3926
▁Blue	-3927
▁Dire	-3928
▁hair	-3929
▁task	-3930
▁Court	-3931
▁roles	-3932
▁write	-3933
▁Illino	-3934
▁cannot	-3935
▁struck	-3936
▁Johnson	-3937
▁demonst	-3938
▁seasons	-3939
▁accepted	-3940
▁achieved	-3941
icip	-3942
imin	-3943
uese	-3944
▁Dem	-3945
▁lif	-3946
arent	-3947
▁bene	-3948
▁resc	-3949
▁wear	-3950
▁Charl	-3951
▁famil	-3952
▁instr	-3953
▁vocal	-3954
▁athlet	-3955
▁recomm	-3956
▁Vietnam	-3957
▁protein	-3958
▁respond	-3959
▁viewers	-3960
▁practice	-3961
▁Portuguese	-3962
ply	-3963
▁48	-3964
▁ge	-3965
aine	-3966
hood	-3967
rial	-3968
▁181	-3969
▁Fey	-3970
▁Jul	-3971
appen	-3972
▁beat	-3973
▁corn	-3974
▁elev	-3975
onents	-3976
▁avoid	-3977
▁crowd	-3978
▁thous	-3979
▁scient	-3980
▁Academy	-3981
▁Thunder	-3982
▁fiction	-3983
▁sequence	-3984
▁primarily	-3985
▁Government	-3986
▁52	-3987
▁Er	-3988
▁Of	-3989
▁Ty	-3990
▁lb	-3991
▁Gar	-3992
▁Rev	-3993
▁Tod	-3994
itual	-3995
venue	-3996
▁1986	-3997
▁chem	-3998
▁Civil	-3999
▁board	-4000
▁owned	-4001
▁types	-4002
essions	-4003
▁Columb	-4004
▁combat	-4005
▁spread	-4006
▁twenty	-4007
▁elected	-4008
▁infantry	-4009
▁slightly	-4010
▁Kr	-4011
▁du	-4012
anes	-4013
ding	-4014
hold	-4015
writ	-4016
▁150	-4017
▁Ram	-4018
▁max	-4019
▁nin	-4020
acher	-4021
▁Land	-4022
▁News	-4023
▁Spain	-4024
▁plant	-4025
▁sales	-4026
▁scale	-4027
▁sport	-4028
▁Engine	-4029
▁altern	-4030
▁inches	-4031
▁rights	-4032
▁sister	-4033
ulations	-4034
▁Captain	-4035
▁concent	-4036
▁affected	-4037
▁expressed	-4038
▁northeast	-4039
▁offensive	-4040
aha	-4041
▁34	-4042
▁180	-4043
▁Mog	-4044
estic	-4045
▁scul	-4046
ceeded	-4047
ograph	-4048
▁Group	-4049
▁Horse	-4050
▁Louis	-4051
▁horse	-4052
▁neigh	-4053
▁rough	-4054
▁words	-4055
▁Review	-4056
▁showed	-4057
cription	-4058
▁officer	-4059
uit	-4060
vin	-4061
bury	-4062
elsh	-4063
road	-4064
▁Mal	-4065
▁spl	-4066
▁suc	-4067
anasi	-4068
intin	-4069
ledge	-4070
ushed	-4071
▁Zhou	-4072
▁sout	-4073
▁walk	-4074
▁Green	-4075
▁Welsh	-4076
▁Young	-4077
▁Empire	-4078
▁Little	-4079
▁Secret	-4080
▁Tintin	-4081
▁county	-4082
▁themes	-4083
▁window	-4084
▁ability	-4085
▁Varanasi	-4086
▁combined	-4087
▁battalion	-4088
FA	-4089
nh	-4090
bitt	-4091
ingu	-4092
room	-4093
▁pun	-4094
arrow	-4095
house	-4096
light	-4097
▁Cont	-4098
▁prec	-4099
▁rear	-4100
▁sust	-4101
▁fruit	-4102
onymous	-4103
▁Andrew	-4104
▁Though	-4105
▁titled	-4106
▁Nesbitt	-4107
▁cultural	-4108
▁incorpor	-4109
▁progress	-4110
▁casualties	-4111
BA	-4112
mun	-4113
emic	-4114
▁Eva	-4115
umber	-4116
▁Burn	-4117
▁Dist	-4118
▁Manc	-4119
▁says	-4120
▁Ceres	-4121
▁Odaen	-4122
▁excav	-4123
▁murder	-4124
▁remark	-4125
▁square	-4126
ironment	-4127
▁Angeles	-4128
▁ancient	-4129
▁produce	-4130
▁earliest	-4131
▁mountain	-4132
▁continues	-4133
▁mentioned	-4134
▁newspaper	-4135
▁recommend	-4136
▁Odaenathus	-4137
Mont	-4138
eter	-4139
omer	-4140
oses	-4141
pedo	-4142
▁dyn	-4143
▁hol	-4144
▁inh	-4145
arnia	-4146
▁1920	-4147
▁Book	-4148
▁Conf	-4149
▁Home	-4150
▁Spec	-4151
▁Turn	-4152
▁Trans	-4153
▁actor	-4154
▁cerem	-4155
▁fully	-4156
▁Commun	-4157
▁DuMont	-4158
▁Sarnia	-4159
▁Olympic	-4160
▁Records	-4161
▁adopted	-4162
▁artists	-4163
▁disease	-4164
▁distinct	-4165
▁flooding	-4166
▁manufact	-4167
▁resulting	-4168
▁influenced	-4169
▁authorities	-4170
▁championship	-4171
ev	-4172
▁Add	-4173
▁Rad	-4174
enant	-4175
while	-4176
utions	-4177
▁basis	-4178
▁Origin	-4179
▁mission	-4180
▁reports	-4181
▁Illinois	-4182
▁advantage	-4183
▁represented	-4184
▁Om	-4185
bird	-4186
helm	-4187
nown	-4188
ovic	-4189
▁Arg	-4190
▁Bol	-4191
▁Jos	-4192
▁har	-4193
▁qual	-4194
▁repe	-4195
▁Apple	-4196
▁Mogad	-4197
▁alone	-4198
▁grass	-4199
▁tower	-4200
▁coming	-4201
▁toward	-4202
▁defense	-4203
▁letters	-4204
▁apparent	-4205
▁Manchester	-4206
▁tournament	-4207
▁Thunderbird	-4208
imb	-4209
nds	-4210
▁SR	-4211
ocks	-4212
orus	-4213
▁Def	-4214
▁Sal	-4215
▁Fred	-4216
▁Wash	-4217
▁armed	-4218
▁exhib	-4219
▁reign	-4220
▁sides	-4221
▁bridge	-4222
▁encour	-4223
▁kakapo	-4224
▁founded	-4225
▁torpedo	-4226
▁workers	-4227
▁occasion	-4228
▁withdraw	-4229
▁alongside	-4230
▁northwest	-4231
▁Washington	-4232
▁relatively	-4233
lin	-4234
mir	-4235
▁fa	-4236
▁Dou	-4237
▁1988	-4238
▁Four	-4239
▁Post	-4240
▁nest	-4241
▁Ocean	-4242
▁legal	-4243
▁tried	-4244
▁illust	-4245
▁losing	-4246
▁mechan	-4247
▁narrow	-4248
▁termin	-4249
▁yellow	-4250
▁cadmium	-4251
▁capture	-4252
▁contain	-4253
▁edition	-4254
▁attended	-4255
▁direction	-4256
▁organized	-4257
▁officially	-4258
▁individuals	-4259
▁transferred	-4260
▁Av	-4261
ogue	-4262
osen	-4263
▁Way	-4264
abama	-4265
eller	-4266
▁mess	-4267
▁mile	-4268
ension	-4269
▁Clark	-4270
▁Omaha	-4271
▁Produ	-4272
▁Middle	-4273
▁acting	-4274
▁effort	-4275
▁perman	-4276
▁proved	-4277
▁Alabama	-4278
▁contact	-4279
▁measure	-4280
▁require	-4281
▁physical	-4282
▁dedicated	-4283
▁officials	-4284
▁surrounding	-4285
AA	-4286
mes	-4287
▁MD	-4288
▁eye	-4289
prise	-4290
usion	-4291
▁edge	-4292
▁emph	-4293
▁prin	-4294
▁rang	-4295
▁thir	-4296
ricult	-4297
▁doing	-4298
▁lives	-4299
▁starl	-4300
▁candid	-4301
▁couple	-4302
▁energy	-4303
▁conflict	-4304
▁rainfall	-4305
ien	-4306
wen	-4307
adel	-4308
ishu	-4309
ading	-4310
imore	-4311
right	-4312
▁Mean	-4313
▁Helms	-4314
▁prepar	-4315
▁divided	-4316
▁follows	-4317
▁pattern	-4318
▁shortly	-4319
▁possibly	-4320
▁Mogadishu	-4321
▁Reception	-4322
▁financial	-4323
▁intensity	-4324
▁designated	-4325
ols	-4326
▁49	-4327
▁65	-4328
▁Hu	-4329
▁ir	-4330
▁vo	-4331
mond	-4332
▁Fam	-4333
▁Hal	-4334
▁Sch	-4335
▁hun	-4336
▁ven	-4337
▁1964	-4338
▁Fant	-4339
▁Lord	-4340
▁paid	-4341
▁youn	-4342
▁your	-4343
▁Innis	-4344
▁faced	-4345
▁older	-4346
▁shape	-4347
▁Edward	-4348
▁albums	-4349
▁images	-4350
▁simply	-4351
▁winter	-4352
▁Wilhelm	-4353
▁maximum	-4354
▁society	-4355
▁sources	-4356
▁determined	-4357
mit	-4358
▁NC	-4359
lied	-4360
rane	-4361
ugby	-4362
▁Bre	-4363
▁Max	-4364
▁aid	-4365
▁ple	-4366
▁rat	-4367
orses	-4368
▁Cons	-4369
▁Kent	-4370
▁kept	-4371
▁onto	-4372
▁raid	-4373
▁step	-4374
▁behav	-4375
▁chief	-4376
▁piece	-4377
▁Histor	-4378
▁Joseph	-4379
▁border	-4380
▁broken	-4381
▁comedy	-4382
▁dissip	-4383
▁emphas	-4384
▁places	-4385
▁journal	-4386
▁portion	-4387
▁Assembly	-4388
▁Independ	-4389
▁function	-4390
▁potential	-4391
rat	-4392
use	-4393
igan	-4394
onna	-4395
▁Jup	-4396
▁sac	-4397
ental	-4398
▁Fleet	-4399
▁Journ	-4400
▁movie	-4401
▁McCall	-4402
▁advert	-4403
▁argued	-4404
▁charge	-4405
▁cities	-4406
▁protect	-4407
▁univers	-4408
▁Commission	-4409
ada	-4410
rid	-4411
▁Bu	-4412
oper	-4413
▁Fer	-4414
▁Rih	-4415
▁Van	-4416
▁thr	-4417
▁folk	-4418
▁grew	-4419
▁mind	-4420
▁wild	-4421
▁PlayS	-4422
▁color	-4423
▁depth	-4424
▁feder	-4425
▁heart	-4426
▁sites	-4427
▁Argent	-4428
▁Hamels	-4429
▁Rihanna	-4430
▁content	-4431
▁domestic	-4432
▁projects	-4433
▁suggests	-4434
▁Baltimore	-4435
▁authority	-4436
▁management	-4437
▁PlayStation	-4438
▁64	-4439
▁Rh	-4440
edar	-4441
iled	-4442
▁dut	-4443
▁wor	-4444
atops	-4445
▁Bowl	-4446
▁Dest	-4447
▁roll	-4448
▁wave	-4449
▁weak	-4450
▁Greek	-4451
▁paint	-4452
▁royal	-4453
▁twice	-4454
acement	-4455
lection	-4456
▁Common	-4457
▁Valley	-4458
▁belong	-4459
▁depart	-4460
▁gained	-4461
▁legisl	-4462
▁letter	-4463
▁museum	-4464
▁prison	-4465
▁sculpt	-4466
▁target	-4467
▁causing	-4468
▁schedul	-4469
▁science	-4470
▁website	-4471
▁entrance	-4472
▁criticized	-4473
▁structures	-4474
▁ultimately	-4475
ex	-4476
je	-4477
ani	-4478
edk	-4479
lies	-4480
▁Cra	-4481
▁Tru	-4482
▁fit	-4483
▁unk	-4484
ening	-4485
ented	-4486
▁Week	-4487
▁doub	-4488
▁neut	-4489
▁vess	-4490
edkare	-4491
enture	-4492
▁extra	-4493
▁homes	-4494
▁share	-4495
▁Palest	-4496
▁Jupiter	-4497
▁debuted	-4498
▁results	-4499
▁Djedkare	-4500
▁formation	-4501
▁containing	-4502
▁kg	-4503
asty	-4504
wide	-4505
▁Ven	-4506
▁agg	-4507
claim	-4508
▁1947	-4509
▁Gall	-4510
▁Mass	-4511
▁Writ	-4512
▁opin	-4513
▁artic	-4514
▁label	-4515
mission	-4516
▁Torres	-4517
▁chosen	-4518
▁deploy	-4519
▁battles	-4520
▁defence	-4521
▁foreign	-4522
▁Constant	-4523
▁hospital	-4524
▁defensive	-4525
VD	-4526
acks	-4527
bour	-4528
resh	-4529
umes	-4530
▁DVD	-4531
▁Hib	-4532
▁Lew	-4533
▁Lis	-4534
▁Sar	-4535
▁Sen	-4536
▁Horn	-4537
▁Kore	-4538
▁core	-4539
▁frag	-4540
▁inch	-4541
▁Night	-4542
▁mouth	-4543
▁animal	-4544
▁buried	-4545
▁master	-4546
▁Eastern	-4547
▁brigade	-4548
▁dismiss	-4549
▁granted	-4550
▁growing	-4551
▁rejected	-4552
▁security	-4553
▁standing	-4554
▁abandoned	-4555
▁prominent	-4556
▁reference	-4557
▁consecutive	-4558
▁FA	-4559
▁Ann	-4560
▁Sil	-4561
inary	-4562
white	-4563
▁1941	-4564
▁Once	-4565
▁risk	-4566
▁cells	-4567
▁Forest	-4568
▁claims	-4569
▁colony	-4570
▁orders	-4571
▁temple	-4572
▁visited	-4573
▁Scottish	-4574
▁therefore	-4575
▁Applewhite	-4576
▁organization	-4577
met	-4578
▁Lo	-4579
iana	-4580
phia	-4581
roll	-4582
▁mel	-4583
▁rom	-4584
nding	-4585
stone	-4586
▁1987	-4587
▁Chap	-4588
▁jump	-4589
▁seek	-4590
▁spot	-4591
▁Short	-4592
▁broke	-4593
▁miner	-4594
▁remix	-4595
adelphia	-4596
▁Airport	-4597
▁regions	-4598
▁seconds	-4599
▁singles	-4600
▁student	-4601
▁wounded	-4602
▁condition	-4603
▁independent	-4604
ML	-4605
▁Ap	-4606
ancy	-4607
mark	-4608
▁Att	-4609
▁Big	-4610
▁Cam	-4611
▁Pop	-4612
▁Tri	-4613
▁adj	-4614
▁fix	-4615
▁solo	-4616
ertain	-4617
isters	-4618
▁Child	-4619
▁ahead	-4620
▁cases	-4621
▁enemy	-4622
▁enter	-4623
▁seems	-4624
▁moment	-4625
▁planet	-4626
▁collect	-4627
▁Egyptian	-4628
▁collabor	-4629
▁intellig	-4630
▁reaching	-4631
▁versions	-4632
▁Institute	-4633
▁equipment	-4634
▁nominated	-4635
▁Background	-4636
▁identified	-4637
▁temperature	-4638
AFE	-4639
ech	-4640
ims	-4641
▁53	-4642
▁120	-4643
▁BBC	-4644
▁Due	-4645
▁1972	-4646
▁1984	-4647
▁1989	-4648
▁SAFE	-4649
▁bott	-4650
▁aired	-4651
▁males	-4652
▁newly	-4653
▁Before	-4654
▁campus	-4655
▁conver	-4656
▁height	-4657
▁unique	-4658
▁Croatia	-4659
▁Further	-4660
▁element	-4661
▁opposed	-4662
▁problem	-4663
▁knowledge	-4664
▁returning	-4665
▁supporting	-4666
ety	-4667
▁wa	-4668
iles	-4669
rete	-4670
uous	-4671
▁Bir	-4672
▁fle	-4673
▁tur	-4674
astic	-4675
▁1985	-4676
▁Each	-4677
▁Good	-4678
▁Lock	-4679
▁Mike	-4680
▁fear	-4681
ocated	-4682
▁dress	-4683
▁fired	-4684
▁Indust	-4685
▁interp	-4686
▁weight	-4687
▁connect	-4688
▁looking	-4689
▁teacher	-4690
▁unknown	-4691
▁analysis	-4692
▁operated	-4693
▁Operation	-4694
▁literature	-4695
▁increasingly	-4696
bon	-4697
igg	-4698
▁Po	-4699
iate	-4700
▁HMS	-4701
▁Lar	-4702
▁shr	-4703
▁tun	-4704
▁here	-4705
asters	-4706
▁Field	-4707
▁burns	-4708
▁compr	-4709
▁defin	-4710
▁ideas	-4711
▁Barrow	-4712
▁theory	-4713
▁writes	-4714
▁Cardiff	-4715
▁believe	-4716
▁council	-4717
▁breeding	-4718
▁commonly	-4719
▁confirmed	-4720
▁explained	-4721
▁historian	-4722
▁settlement	-4723
▁environment	-4724
ibr	-4725
▁55	-4726
▁Es	-4727
▁Ox	-4728
▁RA	-4729
▁Us	-4730
▁ox	-4731
hips	-4732
mosp	-4733
▁Sum	-4734
▁bud	-4735
▁oil	-4736
ortal	-4737
orter	-4738
▁1944	-4739
▁More	-4740
▁Only	-4741
▁phil	-4742
▁alter	-4743
▁molec	-4744
▁Public	-4745
▁arrest	-4746
▁atmosp	-4747
▁cricket	-4748
▁females	-4749
▁herself	-4750
▁perfect	-4751
▁singing	-4752
▁systems	-4753
▁Michigan	-4754
▁advanced	-4755
▁economic	-4756
▁property	-4757
▁scholars	-4758
▁stations	-4759
▁Entertain	-4760
▁consisted	-4761
▁controlled	-4762
▁Philadelphia	-4763
da	-4764
yes	-4765
appy	-4766
odon	-4767
▁Bas	-4768
▁Jon	-4769
▁fox	-4770
▁Even	-4771
▁Norm	-4772
▁Swed	-4773
▁fast	-4774
alions	-4775
▁Keats	-4776
▁Never	-4777
▁devot	-4778
▁growth	-4779
▁happen	-4780
▁pieces	-4781
▁Mounted	-4782
▁deities	-4783
▁dropped	-4784
▁failure	-4785
▁kilomet	-4786
▁strengt	-4787
▁Meanwhile	-4788
▁maintained	-4789
▁parliament	-4790
tav	-4791
▁Arm	-4792
▁Bon	-4793
▁pan	-4794
istry	-4795
▁Carl	-4796
▁Morr	-4797
▁sens	-4798
▁Album	-4799
▁Class	-4800
▁Dutch	-4801
▁honor	-4802
isation	-4803
▁awards	-4804
▁compar	-4805
▁filmed	-4806
▁flying	-4807
▁injury	-4808
▁strike	-4809
▁freeway	-4810
▁killing	-4811
▁pitched	-4812
▁Addition	-4813
▁Williams	-4814
▁creation	-4815
▁landfall	-4816
▁43	-4817
agan	-4818
airs	-4819
▁600	-4820
▁Ban	-4821
▁Jur	-4822
▁Mat	-4823
▁Pet	-4824
▁try	-4825
aling	-4826
ieval	-4827
ighth	-4828
urban	-4829
▁Andy	-4830
▁Prem	-4831
▁Italy	-4832
▁Steve	-4833
▁boats	-4834
▁conne	-4835
▁exped	-4836
▁serve	-4837
▁speak	-4838
▁value	-4839
▁Nathan	-4840
▁belief	-4841
▁extend	-4842
▁horses	-4843
▁humans	-4844
▁resemb	-4845
▁actress	-4846
▁battery	-4847
▁mounted	-4848
▁rapidly	-4849
▁retired	-4850
▁weapons	-4851
▁Congress	-4852
▁promoted	-4853
sw	-4854
▁56	-4855
lers	-4856
▁Abu	-4857
▁bid	-4858
▁imag	-4859
▁pict	-4860
▁semi	-4861
▁stra	-4862
stream	-4863
▁premi	-4864
▁cougar	-4865
▁passes	-4866
▁federal	-4867
▁passing	-4868
▁selling	-4869
▁weather	-4870
▁Minister	-4871
▁creating	-4872
▁invasion	-4873
▁multiple	-4874
▁prepared	-4875
▁religion	-4876
▁straight	-4877
▁Americans	-4878
▁connected	-4879
▁promotion	-4880
▁Conference	-4881
▁recognized	-4882
▁description	-4883
▁publication	-4884
▁significantly	-4885
Le	-4886
oty	-4887
haps	-4888
itch	-4889
more	-4890
pass	-4891
▁Sor	-4892
▁ast	-4893
asure	-4894
ordon	-4895
oured	-4896
▁bats	-4897
▁data	-4898
ampion	-4899
render	-4900
▁Final	-4901
▁Guard	-4902
▁Video	-4903
▁chose	-4904
▁walls	-4905
arrison	-4906
▁column	-4907
▁famous	-4908
▁leader	-4909
▁matter	-4910
▁sought	-4911
▁volume	-4912
▁Develop	-4913
▁aspects	-4914
▁deliver	-4915
▁protest	-4916
▁restaur	-4917
▁seventh	-4918
▁regarded	-4919
▁necessary	-4920
▁producers	-4921
▁scheduled	-4922
▁popularity	-4923
gn	-4924
ano	-4925
▁46	-4926
ella	-4927
icks	-4928
▁Rog	-4929
amese	-4930
ersey	-4931
▁1981	-4932
▁Jeff	-4933
▁Matt	-4934
▁cust	-4935
▁laid	-4936
▁rise	-4937
▁sand	-4938
heless	-4939
▁flank	-4940
▁guest	-4941
▁spect	-4942
agement	-4943
▁starts	-4944
▁convers	-4945
▁landing	-4946
▁nucleus	-4947
▁accompan	-4948
▁agricult	-4949
▁reaction	-4950
▁sustained	-4951
▁Vietnamese	-4952
eer	-4953
isy	-4954
ieut	-4955
▁tim	-4956
ambod	-4957
izing	-4958
ulate	-4959
▁Bost	-4960
▁Gulf	-4961
▁Hart	-4962
▁Stan	-4963
▁fung	-4964
▁tact	-4965
▁Among	-4966
▁Haven	-4967
▁beaut	-4968
▁dated	-4969
▁delay	-4970
▁rival	-4971
▁strik	-4972
clusion	-4973
▁Cambod	-4974
▁castle	-4975
▁fought	-4976
▁philos	-4977
ographer	-4978
▁employed	-4979
▁families	-4980
▁currently	-4981
▁Thunderbirds	-4982
ads	-4983
apt	-4984
che	-4985
ees	-4986
omy	-4987
uge	-4988
▁41	-4989
appe	-4990
crib	-4991
▁700	-4992
inity	-4993
▁1939	-4994
▁Line	-4995
▁Slam	-4996
▁arms	-4997
▁ends	-4998
▁virt	-4999
ansion	-5000
▁drive	-5001
▁outer	-5002
▁phase	-5003
▁train	-5004
▁trial	-5005
▁Athlet	-5006
▁budget	-5007
▁rating	-5008
▁supply	-5009
heastern	-5010
▁contained	-5011
▁facilities	-5012
▁frequently	-5013
▁underground	-5014
RA	-5015
▁Gi	-5016
▁Op	-5017
▁Ul	-5018
rain	-5019
▁Che	-5020
▁Les	-5021
▁Naz	-5022
▁Pho	-5023
▁Sat	-5024
iring	-5025
lines	-5026
orney	-5027
▁1942	-5028
▁Anth	-5029
▁Girl	-5030
▁bank	-5031
▁drop	-5032
▁fict	-5033
▁save	-5034
▁tree	-5035
▁unus	-5036
insula	-5037
itable	-5038
▁clean	-5039
▁finds	-5040
▁gradu	-5041
▁Gordon	-5042
▁Oxford	-5043
▁actors	-5044
▁allows	-5045
▁bottom	-5046
▁degree	-5047
▁reform	-5048
▁silver	-5049
▁spring	-5050
▁reflect	-5051
▁Festival	-5052
▁negative	-5053
▁collected	-5054
▁executive	-5055
▁Revolution	-5056
▁contributed	-5057
amic	-5058
aved	-5059
illo	-5060
yond	-5061
▁130	-5062
▁Den	-5063
▁End	-5064
▁NBA	-5065
▁Sha	-5066
▁USA	-5067
▁sen	-5068
olved	-5069
onent	-5070
▁1918	-5071
angers	-5072
▁Coast	-5073
▁Crazy	-5074
▁cited	-5075
▁fresh	-5076
▁opera	-5077
▁Friend	-5078
▁Turner	-5079
▁beyond	-5080
▁shaped	-5081
standing	-5082
▁Between	-5083
▁Premier	-5084
▁Studios	-5085
▁animals	-5086
ieutenant	-5087
▁computer	-5088
▁entirely	-5089
▁improved	-5090
▁effective	-5091
▁subsequent	-5092
▁Entertainment	-5093
asc	-5094
▁54	-5095
alle	-5096
thur	-5097
▁Obs	-5098
▁bow	-5099
▁mob	-5100
ansas	-5101
▁1968	-5102
▁1969	-5103
▁Work	-5104
▁gain	-5105
ashion	-5106
ropium	-5107
ushing	-5108
▁Boise	-5109
▁Lewis	-5110
▁Mario	-5111
▁Today	-5112
▁draft	-5113
▁gives	-5114
▁Boston	-5115
▁Muslim	-5116
▁simple	-5117
▁express	-5118
▁finding	-5119
▁medical	-5120
▁notable	-5121
▁recently	-5122
▁extensive	-5123
▁gradually	-5124
▁kilometres	-5125
cy	-5126
azz	-5127
sea	-5128
▁57	-5129
▁179	-5130
▁Der	-5131
▁Leg	-5132
▁Pen	-5133
▁egg	-5134
ocked	-5135
▁1975	-5136
▁Chel	-5137
▁Cold	-5138
▁Gard	-5139
▁Jain	-5140
iments	-5141
▁dates	-5142
▁Martin	-5143
▁People	-5144
▁finals	-5145
▁severe	-5146
▁stages	-5147
▁Russian	-5148
▁serving	-5149
▁antimony	-5150
▁expanded	-5151
▁programs	-5152
▁secondary	-5153
ki	-5154
cel	-5155
uff	-5156
▁So	-5157
rong	-5158
unte	-5159
weet	-5160
▁800	-5161
▁Cre	-5162
▁Jes	-5163
▁Key	-5164
▁bit	-5165
▁ham	-5166
ishes	-5167
stead	-5168
▁1965	-5169
▁1974	-5170
▁Cole	-5171
▁Greg	-5172
▁Rail	-5173
▁Turk	-5174
▁Upon	-5175
▁boat	-5176
▁tail	-5177
▁Evita	-5178
▁camer	-5179
▁comes	-5180
▁corre	-5181
▁items	-5182
▁occas	-5183
▁Democr	-5184
▁System	-5185
▁Magazine	-5186
▁occupied	-5187
▁centuries	-5188
▁composition	-5189
ero	-5190
icc	-5191
oys	-5192
udd	-5193
ura	-5194
▁mo	-5195
berg	-5196
hess	-5197
▁mig	-5198
▁wed	-5199
rence	-5200
▁Juan	-5201
▁Sund	-5202
▁farm	-5203
▁mush	-5204
▁sole	-5205
ancing	-5206
unicip	-5207
urches	-5208
▁Domin	-5209
▁chair	-5210
▁daily	-5211
▁floor	-5212
▁naval	-5213
iations	-5214
unction	-5215
▁deaths	-5216
▁losses	-5217
▁slowly	-5218
▁decades	-5219
▁Commander	-5220
▁criticism	-5221
▁fictional	-5222
▁treatment	-5223
▁experienced	-5224
▁commissioned	-5225
▁independence	-5226
▁successfully	-5227
kin	-5228
uli	-5229
▁Ry	-5230
▁od	-5231
anny	-5232
inem	-5233
▁Bru	-5234
▁Fox	-5235
▁Kir	-5236
▁row	-5237
aming	-5238
▁Jurc	-5239
▁Rome	-5240
▁dial	-5241
▁didn	-5242
▁myth	-5243
▁trou	-5244
▁Crown	-5245
▁Jamal	-5246
▁MacLe	-5247
▁Songs	-5248
▁Stone	-5249
▁faith	-5250
▁squad	-5251
▁Avenue	-5252
▁Bridge	-5253
▁Daniel	-5254
▁policy	-5255
▁visual	-5256
▁engaged	-5257
▁sentence	-5258
▁personnel	-5259
▁purchased	-5260
TC	-5261
hat	-5262
lys	-5263
▁96	-5264
▁Do	-5265
▁Ll	-5266
▁ec	-5267
iced	-5268
yson	-5269
▁164	-5270
▁Alf	-5271
▁unp	-5272
▁1946	-5273
▁Bart	-5274
▁Isab	-5275
▁Prov	-5276
▁bass	-5277
▁coal	-5278
▁cool	-5279
lywood	-5280
▁Brian	-5281
▁begun	-5282
▁negot	-5283
ategory	-5284
borough	-5285
▁chorus	-5286
▁prefer	-5287
▁propos	-5288
▁sports	-5289
▁Science	-5290
▁briefly	-5291
▁captain	-5292
▁reasons	-5293
▁District	-5294
▁Tennyson	-5295
▁challeng	-5296
▁concrete	-5297
▁declined	-5298
▁protagon	-5299
▁southwest	-5300
▁worldwide	-5301
▁Throughout	-5302
bl	-5303
▁73	-5304
▁95	-5305
▁Kn	-5306
▁NH	-5307
▁UN	-5308
fort	-5309
▁Liu	-5310
▁Mic	-5311
▁eas	-5312
▁fat	-5313
ublin	-5314
▁Also	-5315
▁Barb	-5316
▁Vill	-5317
▁flag	-5318
▁note	-5319
perial	-5320
▁beach	-5321
▁drawn	-5322
▁moves	-5323
▁roads	-5324
▁Dublin	-5325
▁Simone	-5326
▁concer	-5327
▁elimin	-5328
▁escape	-5329
▁exclus	-5330
ccessful	-5331
▁Project	-5332
▁nothing	-5333
▁organiz	-5334
▁incident	-5335
▁importance	-5336
iro	-5337
▁61	-5338
▁Cy	-5339
▁Hy	-5340
▁Id	-5341
▁Ka	-5342
aret	-5343
rang	-5344
▁Cub	-5345
▁Dun	-5346
▁Igu	-5347
▁arc	-5348
▁fur	-5349
▁hyd	-5350
▁nor	-5351
chers	-5352
quake	-5353
▁1919	-5354
▁1952	-5355
▁1966	-5356
▁Area	-5357
▁Head	-5358
▁Kang	-5359
▁Prot	-5360
▁calc	-5361
▁firm	-5362
▁tend	-5363
▁unsu	-5364
iences	-5365
▁Liber	-5366
▁hired	-5367
▁Family	-5368
▁Temple	-5369
▁decade	-5370
▁favour	-5371
▁street	-5372
▁arrival	-5373
▁billion	-5374
▁chapter	-5375
▁enjoyed	-5376
▁longest	-5377
▁witness	-5378
▁worship	-5379
▁paintings	-5380
▁responded	-5381
▁Production	-5382
▁foundation	-5383
▁accompanied	-5384
▁possibility	-5385
▁participated	-5386
acu	-5387
▁97	-5388
▁GA	-5389
apes	-5390
ayer	-5391
izes	-5392
▁177	-5393
▁Ali	-5394
▁Ell	-5395
▁Mem	-5396
▁Ret	-5397
▁flu	-5398
▁gas	-5399
▁pul	-5400
iance	-5401
▁1936	-5402
▁Five	-5403
▁Ulys	-5404
▁glob	-5405
▁mist	-5406
▁neck	-5407
▁tall	-5408
▁Chart	-5409
▁Maria	-5410
▁guard	-5411
▁heard	-5412
▁labor	-5413
▁stret	-5414
▁theat	-5415
▁wides	-5416
▁Chains	-5417
▁applic	-5418
▁dollar	-5419
▁normal	-5420
▁oldest	-5421
▁owners	-5422
▁senior	-5423
▁MacLeod	-5424
▁Ulysses	-5425
▁roughly	-5426
▁setting	-5427
▁Governor	-5428
▁platform	-5429
▁agreement	-5430
▁developing	-5431
▁Development	-5432
ls	-5433
▁CD	-5434
▁Lu	-5435
alls	-5436
▁Aer	-5437
▁Isl	-5438
▁Mur	-5439
▁Ron	-5440
▁hor	-5441
chest	-5442
iable	-5443
istan	-5444
pread	-5445
▁1973	-5446
▁Baby	-5447
▁Band	-5448
▁acad	-5449
▁remn	-5450
▁skin	-5451
▁trip	-5452
▁vert	-5453
▁Admir	-5454
▁Board	-5455
▁Dougl	-5456
▁green	-5457
▁adding	-5458
▁choice	-5459
▁lasted	-5460
▁poetry	-5461
▁Anthony	-5462
▁Instead	-5463
▁Turkish	-5464
▁Francisc	-5465
▁accident	-5466
▁athletes	-5467
▁consists	-5468
▁violence	-5469
▁dominated	-5470
▁existence	-5471
▁regarding	-5472
▁technology	-5473
▁combination	-5474
▁populations	-5475
eda	-5476
iot	-5477
rem	-5478
▁sn	-5479
adow	-5480
ager	-5481
iday	-5482
usal	-5483
▁Mod	-5484
▁Sus	-5485
▁eth	-5486
antly	-5487
▁1967	-5488
▁Team	-5489
▁isol	-5490
▁Iguan	-5491
▁acres	-5492
▁calls	-5493
▁clubs	-5494
▁comic	-5495
▁spons	-5496
▁resear	-5497
▁reserv	-5498
▁submar	-5499
▁Theatre	-5500
▁applied	-5501
▁closely	-5502
▁college	-5503
▁filming	-5504
▁habitat	-5505
▁existing	-5506
▁weakened	-5507
▁committee	-5508
▁performing	-5509
▁association	-5510
▁competitions	-5511
▁unsuccessful	-5512
era	-5513
rum	-5514
vis	-5515
▁62	-5516
aser	-5517
aton	-5518
come	-5519
resp	-5520
▁110	-5521
▁Mov	-5522
▁aer	-5523
isers	-5524
▁1914	-5525
▁Marl	-5526
▁Aston	-5527
▁Phill	-5528
▁altar	-5529
▁benef	-5530
▁decre	-5531
▁overl	-5532
▁pilot	-5533
▁tells	-5534
▁appeal	-5535
▁serves	-5536
▁undert	-5537
▁capable	-5538
▁derived	-5539
▁details	-5540
▁greatly	-5541
▁learned	-5542
▁neither	-5543
▁perhaps	-5544
▁purpose	-5545
▁transit	-5546
▁Mountain	-5547
▁ceremony	-5548
▁distingu	-5549
▁painting	-5550
▁provides	-5551
▁reinforce	-5552
▁battalions	-5553
▁opportunity	-5554
▁occasionally	-5555
▁administration	-5556
▁archaeological	-5557
set	-5558
▁85	-5559
aver	-5560
bean	-5561
opes	-5562
▁AML	-5563
▁Ari	-5564
▁Gab	-5565
▁Men	-5566
▁Ode	-5567
ichol	-5568
pring	-5569
▁Braz	-5570
▁Dota	-5571
▁ones	-5572
▁seat	-5573
▁sort	-5574
ection	-5575
ibbean	-5576
▁dance	-5577
▁thing	-5578
▁towns	-5579
▁Albert	-5580
▁Bishop	-5581
▁basket	-5582
▁bought	-5583
▁editor	-5584
▁fellow	-5585
▁filled	-5586
▁headed	-5587
▁survey	-5588
▁Chelsea	-5589
▁Douglas	-5590
▁Hornung	-5591
▁contrib	-5592
▁descend	-5593
▁innings	-5594
▁invited	-5595
▁paralle	-5596
▁reconst	-5597
▁churches	-5598
▁speaking	-5599
▁supposed	-5600
▁vehicles	-5601
▁Anonymous	-5602
▁Caribbean	-5603
▁encounter	-5604
▁receiving	-5605
▁storyline	-5606
▁technique	-5607
▁dissipated	-5608
▁sufficient	-5609
amy	-5610
ato	-5611
erc	-5612
pty	-5613
▁71	-5614
▁ut	-5615
ules	-5616
▁ERA	-5617
▁seg	-5618
▁som	-5619
▁ton	-5620
inner	-5621
lying	-5622
▁1945	-5623
▁1971	-5624
▁Asia	-5625
▁Kenn	-5626
▁Leon	-5627
▁Life	-5628
▁Step	-5629
▁Stew	-5630
▁door	-5631
▁drew	-5632
▁goes	-5633
▁plum	-5634
▁About	-5635
▁Georg	-5636
▁Maeda	-5637
▁Perry	-5638
▁drama	-5639
ountain	-5640
pective	-5641
ructure	-5642
▁Hibari	-5643
▁Summer	-5644
▁astron	-5645
▁branch	-5646
▁depict	-5647
▁symbol	-5648
▁viewed	-5649
ographic	-5650
▁accompl	-5651
▁fashion	-5652
▁islands	-5653
▁massive	-5654
▁receive	-5655
▁stopped	-5656
▁typical	-5657
▁Cardinal	-5658
▁anything	-5659
▁survived	-5660
▁Lieutenant	-5661
▁classified	-5662
▁widespread	-5663
▁Constantine	-5664
hu	-5665
ala	-5666
win	-5667
▁59	-5668
▁eu	-5669
agle	-5670
pson	-5671
rait	-5672
ruli	-5673
▁Age	-5674
▁MTV	-5675
▁Rod	-5676
▁Rol	-5677
▁aim	-5678
▁rif	-5679
▁why	-5680
arian	-5681
usted	-5682
uting	-5683
▁1982	-5684
▁Stev	-5685
▁What	-5686
▁acid	-5687
▁crop	-5688
▁poly	-5689
▁quot	-5690
▁ring	-5691
▁sail	-5692
▁synt	-5693
glades	-5694
ibrary	-5695
▁Brook	-5696
▁Const	-5697
▁Qedar	-5698
▁Simon	-5699
▁truth	-5700
▁Golden	-5701
▁Romani	-5702
▁assass	-5703
▁motion	-5704
▁safety	-5705
▁shared	-5706
▁trying	-5707
ications	-5708
▁Fantasy	-5709
▁authors	-5710
▁digital	-5711
▁flights	-5712
▁missing	-5713
▁Georgian	-5714
▁acquired	-5715
▁district	-5716
▁repeated	-5717
▁settlers	-5718
▁converted	-5719
▁household	-5720
▁southeast	-5721
▁protection	-5722
ati	-5723
cki	-5724
ips	-5725
▁Ur	-5726
▁ha	-5727
gend	-5728
▁160	-5729
▁Fre	-5730
▁Ing	-5731
▁Jud	-5732
▁Moz	-5733
▁Rio	-5734
▁Tra	-5735
▁Wat	-5736
essed	-5737
idges	-5738
iston	-5739
▁1913	-5740
▁1916	-5741
▁1956	-5742
▁1976	-5743
▁Bond	-5744
▁Bull	-5745
▁Oslo	-5746
▁roof	-5747
▁Haiti	-5748
▁Radio	-5749
▁evacu	-5750
▁turns	-5751
issance	-5752
utation	-5753
▁Freder	-5754
▁finish	-5755
▁routes	-5756
entially	-5757
▁Shortly	-5758
▁Stadium	-5759
▁focused	-5760
▁funding	-5761
▁holding	-5762
▁opinion	-5763
▁spacing	-5764
▁watched	-5765
▁wedding	-5766
▁arranged	-5767
▁baseball	-5768
▁depicted	-5769
▁planning	-5770
▁substant	-5771
▁locations	-5772
▁permanent	-5773
▁succeeded	-5774
▁atmosphere	-5775
▁experiment	-5776
VN	-5777
▁i	-5778
inn	-5779
tty	-5780
▁72	-5781
▁81	-5782
▁Oh	-5783
iege	-5784
▁175	-5785
▁Row	-5786
▁Tim	-5787
▁bul	-5788
▁cho	-5789
▁dub	-5790
▁ign	-5791
▁opt	-5792
acity	-5793
hetic	-5794
idden	-5795
▁1943	-5796
▁bowl	-5797
▁fuel	-5798
▁indu	-5799
▁knew	-5800
bridge	-5801
▁Jones	-5802
▁Venus	-5803
▁exact	-5804
▁initi	-5805
respond	-5806
▁Allied	-5807
▁Brazil	-5808
▁chance	-5809
▁channel	-5810
▁creator	-5811
▁decline	-5812
▁defined	-5813
▁penalty	-5814
▁reality	-5815
▁credited	-5816
▁resident	-5817
ifications	-5818
▁Iguanodon	-5819
▁providing	-5820
▁correspond	-5821
▁earthquake	-5822
GN	-5823
ky	-5824
awa	-5825
eed	-5826
uan	-5827
▁94	-5828
agre	-5829
indu	-5830
okes	-5831
▁112	-5832
▁250	-5833
▁Ast	-5834
▁IGN	-5835
▁mic	-5836
▁1963	-5837
▁Arts	-5838
▁Lenn	-5839
▁grav	-5840
▁jack	-5841
▁laws	-5842
▁rebu	-5843
▁rich	-5844
▁tied	-5845
▁ways	-5846
▁wins	-5847
ilding	-5848
ivered	-5849
▁Dream	-5850
▁Gully	-5851
▁Hindu	-5852
▁Phoen	-5853
▁glass	-5854
▁heads	-5855
▁inner	-5856
▁pregn	-5857
stances	-5858
▁assemb	-5859
▁dating	-5860
▁downlo	-5861
▁explos	-5862
▁Rangers	-5863
▁Stevens	-5864
▁airport	-5865
▁charter	-5866
▁renamed	-5867
▁Morrison	-5868
▁supplies	-5869
▁Secretary	-5870
▁delivered	-5871
▁separated	-5872
▁thousands	-5873
▁Everglades	-5874
▁Additionally	-5875
ux	-5876
isf	-5877
sey	-5878
▁Bh	-5879
anda	-5880
iece	-5881
itan	-5882
outs	-5883
rupt	-5884
▁176	-5885
▁Gre	-5886
▁Luc	-5887
▁Run	-5888
▁UTC	-5889
▁cit	-5890
▁ice	-5891
▁rac	-5892
▁Gram	-5893
▁eyes	-5894
▁rose	-5895
▁wick	-5896
estone	-5897
inated	-5898
▁Broad	-5899
▁Homer	-5900
▁rural	-5901
▁split	-5902
▁Archae	-5903
▁Office	-5904
▁Sunday	-5905
▁inspir	-5906
▁overse	-5907
▁regime	-5908
▁secure	-5909
▁Friends	-5910
▁Similar	-5911
▁emperor	-5912
▁turning	-5913
▁Bradford	-5914
▁Columbia	-5915
▁indicate	-5916
▁teaching	-5917
▁Alexander	-5918
▁Committee	-5919
▁Hollywood	-5920
▁certified	-5921
▁commanded	-5922
▁remainder	-5923
▁consisting	-5924
▁instrument	-5925
▁opposition	-5926
▁Australians	-5927
BS	-5928
RE	-5929
gé	-5930
rug	-5931
▁77	-5932
▁Ly	-5933
pany	-5934
rons	-5935
▁Cle	-5936
▁Sap	-5937
▁dog	-5938
▁eld	-5939
▁hat	-5940
jillo	-5941
▁1953	-5942
▁1978	-5943
▁Gang	-5944
▁Holy	-5945
▁Patt	-5946
▁Pers	-5947
▁drug	-5948
▁aware	-5949
▁noisy	-5950
▁quite	-5951
▁urban	-5952
igation	-5953
▁Marine	-5954
▁Native	-5955
▁affect	-5956
▁colour	-5957
▁courts	-5958
▁occurs	-5959
▁powers	-5960
▁valley	-5961
ologists	-5962
▁Montana	-5963
▁address	-5964
▁economy	-5965
▁journey	-5966
▁Critical	-5967
▁Croatian	-5968
▁Director	-5969
▁Maryland	-5970
▁Trujillo	-5971
▁attached	-5972
▁highlight	-5973
▁surrender	-5974
▁technical	-5975
▁assistance	-5976
▁references	-5977
▁revolution	-5978
▁establishment	-5979
ela	-5980
lik	-5981
aked	-5982
ider	-5983
ippi	-5984
▁Adv	-5985
▁Han	-5986
▁dry	-5987
▁lin	-5988
▁pet	-5989
apers	-5990
ilton	-5991
▁Alan	-5992
▁Bern	-5993
▁Down	-5994
ewhere	-5995
ighter	-5996
▁Roxas	-5997
▁leads	-5998
▁table	-5999
▁views	-6000
inosaur	-6001
issippi	-6002
ivalent	-6003
ressive	-6004
▁Arthur	-6005
▁Walter	-6006
▁denied	-6007
▁leaves	-6008
▁resist	-6009
▁surviv	-6010
▁Charlie	-6011
▁Chronic	-6012
▁adapted	-6013
▁disturb	-6014
▁methods	-6015
▁studied	-6016
▁Engineer	-6017
▁interior	-6018
▁missions	-6019
▁shooting	-6020
▁finishing	-6021
▁portrayed	-6022
▁producing	-6023
▁successor	-6024
▁reputation	-6025
▁strengthen	-6026
▁Mississippi	-6027
▁distribution	-6028
ych	-6029
andy	-6030
ardo	-6031
bles	-6032
rier	-6033
ture	-6034
▁Bur	-6035
▁Kil	-6036
▁Low	-6037
▁Rel	-6038
▁Sub	-6039
▁rob	-6040
▁rub	-6041
▁sle	-6042
▁sud	-6043
▁upd	-6044
agues	-6045
senal	-6046
▁1915	-6047
▁Wind	-6048
▁kits	-6049
▁lane	-6050
▁prey	-6051
ifying	-6052
▁camps	-6053
▁crime	-6054
▁entry	-6055
▁immig	-6056
▁worst	-6057
uration	-6058
▁Howard	-6059
▁Samuel	-6060
▁Within	-6061
▁getting	-6062
▁offense	-6063
▁entering	-6064
▁gameplay	-6065
▁maintain	-6066
▁politics	-6067
▁Recording	-6068
▁dismissed	-6069
▁protected	-6070
▁Activision	-6071
▁intelligence	-6072
▁characteristics	-6073
OT	-6074
SB	-6075
hi	-6076
ipl	-6077
osa	-6078
▁98	-6079
ador	-6080
born	-6081
ells	-6082
ette	-6083
kins	-6084
▁Edu	-6085
▁Hon	-6086
▁Hug	-6087
▁Jac	-6088
▁Jay	-6089
▁Mul	-6090
▁von	-6091
ropri	-6092
unket	-6093
▁Snow	-6094
▁Stef	-6095
▁puzz	-6096
offman	-6097
▁Marsh	-6098
▁Ridge	-6099
▁basin	-6100
▁crown	-6101
▁exerc	-6102
▁holds	-6103
▁knots	-6104
▁charts	-6105
▁franch	-6106
▁noting	-6107
▁novels	-6108
▁stones	-6109
▁Calvert	-6110
▁Plunket	-6111
▁charges	-6112
▁classes	-6113
▁dollars	-6114
▁monarch	-6115
▁replace	-6116
▁Isabella	-6117
▁capacity	-6118
▁monument	-6119
▁mushroom	-6120
▁discussed	-6121
▁attributed	-6122
▁interested	-6123
▁introduction	-6124
ao	-6125
evo	-6126
oba	-6127
var	-6128
▁66	-6129
▁ML	-6130
elve	-6131
enge	-6132
erog	-6133
host	-6134
rien	-6135
town	-6136
▁DNA	-6137
▁Dar	-6138
▁Far	-6139
▁NBC	-6140
▁cab	-6141
▁die	-6142
▁lic	-6143
▁pal	-6144
▁vic	-6145
ajevo	-6146
ecess	-6147
icial	-6148
ivity	-6149
opher	-6150
▁1890	-6151
▁1917	-6152
▁1948	-6153
▁Lisa	-6154
▁Pope	-6155
▁Wall	-6156
▁baby	-6157
▁mort	-6158
▁vary	-6159
ameter	-6160
orters	-6161
ources	-6162
▁Danny	-6163
▁Sound	-6164
▁agent	-6165
▁moder	-6166
▁pound	-6167
▁ruled	-6168
▁rules	-6169
▁worth	-6170
▁Jersey	-6171
▁Weekly	-6172
▁fields	-6173
▁offers	-6174
▁sector	-6175
▁vision	-6176
angerous	-6177
▁coastal	-6178
▁younger	-6179
▁Industry	-6180
▁Sarajevo	-6181
▁accounts	-6182
▁electric	-6183
▁historic	-6184
▁medieval	-6185
▁appearing	-6186
▁predecess	-6187
▁publisher	-6188
▁statement	-6189
▁describing	-6190
▁generation	-6191
can	-6192
ena	-6193
ube	-6194
▁Ho	-6195
▁Ye	-6196
iful	-6197
mans	-6198
▁Ray	-6199
▁Vol	-6200
attle	-6201
erted	-6202
itors	-6203
▁1951	-6204
▁1979	-6205
▁Hard	-6206
▁Less	-6207
▁Yank	-6208
▁arts	-6209
▁soil	-6210
▁tomb	-6211
▁zone	-6212
cribed	-6213
intend	-6214
orough	-6215
▁Daily	-6216
▁apart	-6217
▁basic	-6218
▁cinem	-6219
▁conte	-6220
▁ninth	-6221
▁Strand	-6222
▁caught	-6223
▁desire	-6224
▁expect	-6225
▁plants	-6226
▁rarely	-6227
▁retire	-6228
▁tribes	-6229
▁Destiny	-6230
▁Stephen	-6231
▁article	-6232
▁forests	-6233
▁someone	-6234
formation	-6235
▁Victoria	-6236
▁Yankovic	-6237
▁Frederick	-6238
▁discovery	-6239
▁emotional	-6240
▁exception	-6241
▁difficulty	-6242
▁everything	-6243
▁restaurant	-6244
▁recognition	-6245
▁considerable	-6246
OC	-6247
cop	-6248
orer	-6249
pton	-6250
▁Abb	-6251
▁Gil	-6252
▁Joe	-6253
▁Top	-6254
▁enl	-6255
▁pup	-6256
ients	-6257
itage	-6258
othes	-6259
▁1954	-6260
▁1961	-6261
▁Earl	-6262
▁Hell	-6263
▁Init	-6264
▁bond	-6265
▁doct	-6266
▁shel	-6267
coming	-6268
graded	-6269
igades	-6270
▁Press	-6271
▁conve	-6272
▁hotel	-6273
▁kings	-6274
▁pitch	-6275
▁rhyth	-6276
▁shore	-6277
▁store	-6278
▁Around	-6279
▁Mozamb	-6280
▁Resear	-6281
▁Somali	-6282
▁chapel	-6283
▁landed	-6284
▁manner	-6285
▁sudden	-6286
▁taught	-6287
▁thirty	-6288
▁wooden	-6289
▁Rolling	-6290
▁contest	-6291
▁disappe	-6292
▁evening	-6293
▁Clarkson	-6294
▁colonial	-6295
▁opponents	-6296
▁Television	-6297
▁nomination	-6298
▁involvement	-6299
▁replacement	-6300
▁specifically	-6301
ym	-6302
ys	-6303
rin	-6304
▁69	-6305
▁87	-6306
aire	-6307
aska	-6308
ifna	-6309
nest	-6310
▁Det	-6311
▁Dom	-6312
▁Lee	-6313
▁fan	-6314
Brien	-6315
ateur	-6316
psons	-6317
▁1937	-6318
▁Bono	-6319
▁Duke	-6320
▁Fame	-6321
▁Flow	-6322
▁Skye	-6323
▁fair	-6324
▁hope	-6325
▁impr	-6326
▁mine	-6327
▁soft	-6328
cation	-6329
ingale	-6330
usalem	-6331
▁Anton	-6332
▁Campb	-6333
▁Jifna	-6334
▁Lords	-6335
▁Order	-6336
▁Santa	-6337
▁Wilde	-6338
▁accur	-6339
▁poems	-6340
▁Castle	-6341
▁Nether	-6342
▁divine	-6343
▁fungus	-6344
▁picked	-6345
▁wealth	-6346
▁Colonel	-6347
▁Roberts	-6348
▁Singles	-6349
▁consequ	-6350
▁secured	-6351
▁Simpsons	-6352
▁believes	-6353
▁Francisco	-6354
▁Jerusalem	-6355
▁communities	-6356
▁controversy	-6357
▁recommended	-6358
▁intersection	-6359
LI	-6360
ava	-6361
▁Mu	-6362
▁Ré	-6363
▁ru	-6364
nell	-6365
rets	-6366
▁Dis	-6367
▁Tel	-6368
▁lov	-6369
▁van	-6370
eenth	-6371
itled	-6372
named	-6373
reets	-6374
▁1955	-6375
▁Eliz	-6376
▁Fish	-6377
▁Wars	-6378
▁legs	-6379
▁pros	-6380
remely	-6381
ultane	-6382
▁Adams	-6383
▁Track	-6384
▁faces	-6385
▁joint	-6386
▁releg	-6387
rations	-6388
theless	-6389
▁Master	-6390
▁launch	-6391
▁missed	-6392
unicipal	-6393
▁appoint	-6394
▁drawing	-6395
▁scholar	-6396
▁signing	-6397
▁volunte	-6398
▁whereas	-6399
▁Hamilton	-6400
▁Military	-6401
▁Olympics	-6402
▁concerns	-6403
▁Argentina	-6404
▁Transport	-6405
▁extremely	-6406
▁principal	-6407
▁specimens	-6408
▁standards	-6409
▁leadership	-6410
▁Independent	-6411
▁organizations	-6412
30	-6413
uma	-6414
▁Bi	-6415
▁Wi	-6416
avia	-6417
▁Cat	-6418
▁Cop	-6419
▁Rif	-6420
▁gal	-6421
amber	-6422
istol	-6423
osure	-6424
ureau	-6425
▁1900	-6426
▁1958	-6427
▁Cory	-6428
▁Fire	-6429
▁Here	-6430
▁Marc	-6431
▁Walk	-6432
▁card	-6433
▁jazz	-6434
atures	-6435
ceived	-6436
engers	-6437
ranean	-6438
wealth	-6439
▁Banai	-6440
▁Beach	-6441
▁Prime	-6442
▁teeth	-6443
▁tries	-6444
▁youth	-6445
▁Forces	-6446
▁commit	-6447
▁speech	-6448
▁stream	-6449
▁treaty	-6450
▁Writing	-6451
▁emerged	-6452
▁existed	-6453
▁parties	-6454
▁session	-6455
▁showing	-6456
▁chemical	-6457
▁diameter	-6458
▁europium	-6459
▁partners	-6460
▁approached	-6461
▁conference	-6462
▁connection	-6463
▁surrounded	-6464
▁threatened	-6465
▁distributed	-6466
▁relationships	-6467
ez	-6468
ét	-6469
add	-6470
gie	-6471
ipe	-6472
▁79	-6473
▁Wy	-6474
edom	-6475
wise	-6476
▁Fel	-6477
▁Mot	-6478
▁Yan	-6479
▁lbw	-6480
acent	-6481
alent	-6482
ideos	-6483
▁1949	-6484
▁1977	-6485
▁Plot	-6486
▁hill	-6487
▁leuk	-6488
▁pack	-6489
▁page	-6490
▁stem	-6491
▁Roger	-6492
▁alien	-6493
▁hoped	-6494
▁shark	-6495
▁solid	-6496
▁wants	-6497
▁wrong	-6498
▁Carter	-6499
▁Lennon	-6500
▁Modern	-6501
▁Norman	-6502
▁Spring	-6503
▁disapp	-6504
▁discip	-6505
▁facing	-6506
▁firing	-6507
▁seeing	-6508
▁conduct	-6509
▁crossed	-6510
▁product	-6511
▁railway	-6512
▁ratings	-6513
▁strateg	-6514
▁synthes	-6515
▁unusual	-6516
▁favorite	-6517
▁isolated	-6518
▁immediate	-6519
▁regularly	-6520
▁Depression	-6521
▁expedition	-6522
▁historians	-6523
▁alternative	-6524
▁documentary	-6525
▁institutions	-6526
dal	-6527
▁Ca	-6528
▁DA	-6529
▁WW	-6530
atus	-6531
oked	-6532
ooth	-6533
owie	-6534
usad	-6535
▁121	-6536
▁bes	-6537
▁sym	-6538
abeth	-6539
inals	-6540
ombat	-6541
union	-6542
▁Ryan	-6543
▁cold	-6544
▁soul	-6545
▁warm	-6546
▁Hergé	-6547
▁Human	-6548
▁demol	-6549
▁indig	-6550
▁motor	-6551
▁owner	-6552
▁scrap	-6553
▁veget	-6554
entions	-6555
ossible	-6556
▁Kilmer	-6557
▁Unlike	-6558
▁bright	-6559
▁detail	-6560
▁duties	-6561
▁inland	-6562
▁sequel	-6563
iversary	-6564
▁Goffman	-6565
▁Janeiro	-6566
▁Saprang	-6567
▁assumed	-6568
▁message	-6569
▁partial	-6570
▁pointed	-6571
▁treated	-6572
▁admitted	-6573
▁breaking	-6574
▁bringing	-6575
▁changing	-6576
▁examples	-6577
▁literary	-6578
▁protests	-6579
▁regional	-6580
▁reviewer	-6581
▁strongly	-6582
▁expansion	-6583
▁franchise	-6584
▁languages	-6585
▁watershed	-6586
▁destroyers	-6587
▁anniversary	-6588
▁designation	-6589
▁protagonist	-6590
aws	-6591
gas	-6592
ibl	-6593
rab	-6594
war	-6595
▁AR	-6596
imet	-6597
real	-6598
▁BCE	-6599
▁Kat	-6600
▁Kel	-6601
▁Nap	-6602
▁bat	-6603
▁ske	-6604
▁tie	-6605
▁tra	-6606
ingly	-6607
ledon	-6608
onica	-6609
osite	-6610
▁1983	-6611
▁Fern	-6612
▁Iron	-6613
▁Trib	-6614
▁Wimb	-6615
▁aged	-6616
▁coup	-6617
▁eggs	-6618
▁fish	-6619
▁harm	-6620
▁outf	-6621
friend	-6622
▁Burns	-6623
▁Chief	-6624
▁Tower	-6625
▁absor	-6626
▁genre	-6627
▁marks	-6628
▁meets	-6629
▁overw	-6630
▁Hearts	-6631
▁Lawton	-6632
▁ancest	-6633
▁circum	-6634
▁consum	-6635
▁easily	-6636
▁eighth	-6637
▁rescue	-6638
▁winner	-6639
▁Georgia	-6640
▁airline	-6641
▁improve	-6642
▁orchest	-6643
▁retreat	-6644
▁stadium	-6645
▁wearing	-6646
▁Research	-6647
▁academic	-6648
▁approved	-6649
▁champion	-6650
▁detailed	-6651
▁minister	-6652
▁sections	-6653
▁specimen	-6654
▁Wimbledon	-6655
▁attracted	-6656
▁indicated	-6657
▁intention	-6658
▁completion	-6659
▁department	-6660
▁engineering	-6661
adu	-6662
arp	-6663
aug	-6664
eor	-6665
nie	-6666
och	-6667
ona	-6668
▁AD	-6669
▁IV	-6670
▁ib	-6671
▁ur	-6672
iour	-6673
know	-6674
▁Bul	-6675
▁Dev	-6676
▁Mid	-6677
▁Win	-6678
▁emp	-6679
▁lap	-6680
▁sun	-6681
allow	-6682
ensus	-6683
ician	-6684
ockey	-6685
oking	-6686
orous	-6687
pping	-6688
▁Bank	-6689
▁Base	-6690
▁Hung	-6691
▁Jean	-6692
aments	-6693
▁Color	-6694
▁Third	-6695
▁citiz	-6696
▁coord	-6697
▁happy	-6698
▁trail	-6699
istered	-6700
ogether	-6701
▁Gerard	-6702
▁Person	-6703
▁Rhodes	-6704
▁Square	-6705
▁Territ	-6706
▁acknow	-6707
▁carbon	-6708
▁gather	-6709
▁looked	-6710
▁muscar	-6711
▁Somalia	-6712
▁Station	-6713
▁accused	-6714
▁feeling	-6715
▁reading	-6716
▁settled	-6717
▁adjacent	-6718
▁civilian	-6719
▁starling	-6720
▁terminus	-6721
▁traveled	-6722
▁Cambridge	-6723
▁assistant	-6724
▁challenge	-6725
▁practices	-6726
▁surviving	-6727
▁Richardson	-6728
▁attempting	-6729
▁encouraged	-6730
▁effectively	-6731
▁territories	-6732
▁constitution	-6733
amm	-6734
ban	-6735
bur	-6736
mod	-6737
thy	-6738
▁88	-6739
▁91	-6740
▁99	-6741
▁Si	-6742
body	-6743
cape	-6744
▁Ros	-6745
▁Sav	-6746
▁bal	-6747
▁fer	-6748
▁mut	-6749
break	-6750
ewhat	-6751
▁1880	-6752
▁1909	-6753
▁1910	-6754
▁Garc	-6755
▁dock	-6756
▁evil	-6757
▁grey	-6758
▁nick	-6759
▁sell	-6760
▁thin	-6761
illing	-6762
▁Jesus	-6763
▁Keamy	-6764
▁armor	-6765
▁crest	-6766
▁decor	-6767
▁multi	-6768
▁races	-6769
▁recre	-6770
▁shots	-6771
▁Kombat	-6772
▁Mortal	-6773
▁convoy	-6774
▁partly	-6775
▁preced	-6776
▁seemed	-6777
▁stands	-6778
▁streak	-6779
▁towers	-6780
▁underw	-6781
▁videos	-6782
▁Admiral	-6783
▁Aniston	-6784
▁Formula	-6785
▁Journal	-6786
▁extreme	-6787
▁inhabit	-6788
▁painted	-6789
▁visible	-6790
▁Attorney	-6791
▁brothers	-6792
▁identity	-6793
▁obtained	-6794
▁recalled	-6795
▁romantic	-6796
▁somewhat	-6797
▁candidate	-6798
▁compounds	-6799
▁recovered	-6800
▁possession	-6801
▁scientific	-6802
▁arrangement	-6803
▁inspiration	-6804
▁interchange	-6805
▁Commonwealth	-6806
▁agricultural	-6807
bie	-6808
amin	-6809
dess	-6810
emia	-6811
isis	-6812
umps	-6813
▁122	-6814
▁Anc	-6815
▁Guy	-6816
▁san	-6817
achus	-6818
ennis	-6819
ivals	-6820
ropol	-6821
▁1912	-6822
▁1931	-6823
▁1935	-6824
▁Lanc	-6825
▁Pine	-6826
▁Test	-6827
▁Type	-6828
▁Wolf	-6829
▁acts	-6830
▁fled	-6831
▁gall	-6832
▁hear	-6833
▁hits	-6834
▁shif	-6835
▁tone	-6836
▁Every	-6837
▁Power	-6838
▁catch	-6839
▁cloud	-6840
▁cycle	-6841
▁equal	-6842
▁funds	-6843
▁maint	-6844
▁ocean	-6845
▁teach	-6846
▁verse	-6847
▁Arabic	-6848
▁Coryth	-6849
▁Fraser	-6850
▁Poland	-6851
▁convin	-6852
▁estate	-6853
▁hosted	-6854
▁linked	-6855
▁reduce	-6856
▁select	-6857
▁spaces	-6858
▁spirit	-6859
▁Germans	-6860
▁Islands	-6861
▁Marines	-6862
▁footage	-6863
▁passage	-6864
▁proceed	-6865
▁theatre	-6866
▁Johnston	-6867
▁relative	-6868
▁Plunketts	-6869
▁implement	-6870
▁preserved	-6871
▁sculpture	-6872
▁suffering	-6873
▁basketball	-6874
▁industrial	-6875
▁Corythosaurus	-6876
how	-6877
sta	-6878
▁CE	-6879
▁Ec	-6880
▁Pu	-6881
▁au	-6882
▁ps	-6883
iary	-6884
illy	-6885
ppet	-6886
rast	-6887
▁Bos	-6888
▁Exp	-6889
▁FIA	-6890
▁Inc	-6891
▁Jun	-6892
▁Lev	-6893
▁Loc	-6894
▁ere	-6895
▁flo	-6896
▁hip	-6897
▁lob	-6898
▁map	-6899
▁mis	-6900
▁unf	-6901
abled	-6902
aware	-6903
going	-6904
itals	-6905
peare	-6906
using	-6907
vious	-6908
▁1932	-6909
▁Nick	-6910
▁Rele	-6911
▁Your	-6912
▁deck	-6913
▁lear	-6914
▁wars	-6915
bishop	-6916
▁Allah	-6917
▁Hotel	-6918
▁Prote	-6919
▁conqu	-6920
▁displ	-6921
▁siege	-6922
attered	-6923
ificial	-6924
intendo	-6925
sewhere	-6926
▁Shakes	-6927
▁adults	-6928
▁blocks	-6929
▁debate	-6930
▁income	-6931
▁legend	-6932
▁medium	-6933
▁serial	-6934
▁stayed	-6935
▁tailed	-6936
▁twelve	-6937
▁chronic	-6938
▁correct	-6939
erogative	-6940
▁Nintendo	-6941
▁composer	-6942
▁defended	-6943
▁download	-6944
▁equipped	-6945
▁learning	-6946
▁opposite	-6947
▁province	-6948
▁sessions	-6949
▁Peninsula	-6950
▁attacking	-6951
▁concerned	-6952
▁expensive	-6953
▁reviewers	-6954
▁continuing	-6955
▁Marlborough	-6956
▁Shakespeare	-6957
▁circulation	-6958
▁destruction	-6959
▁incorporated	-6960
▁controversial	-6961
▁responsibility	-6962
hm	-6963
ka	-6964
uri	-6965
xts	-6966
ycl	-6967
▁ic	-6968
agas	-6969
hews	-6970
icts	-6971
onic	-6972
yles	-6973
▁Fei	-6974
▁Kar	-6975
▁Pul	-6976
▁bay	-6977
▁ble	-6978
▁1911	-6979
▁1921	-6980
▁1929	-6981
▁Fair	-6982
▁Owen	-6983
▁gone	-6984
▁hall	-6985
▁none	-6986
▁pool	-6987
▁pric	-6988
▁spin	-6989
iamond	-6990
inking	-6991
orious	-6992
▁Palmy	-6993
▁depos	-6994
▁inaug	-6995
▁voted	-6996
▁Flight	-6997
▁Palace	-6998
▁lowest	-6999
▁patrol	-7000
▁pushed	-7001
▁rebels	-7002
▁ritual	-7003
▁Patrick	-7004
▁Stanley	-7005
▁driving	-7006
▁falling	-7007
▁kitsune	-7008
▁promote	-7009
▁proport	-7010
▁reserve	-7011
▁victims	-7012
▁willing	-7013
stitution	-7014
▁Lawrence	-7015
▁accommod	-7016
▁crossing	-7017
▁measures	-7018
▁meetings	-7019
▁parallel	-7020
▁remnants	-7021
▁songwrit	-7022
▁throwing	-7023
▁initiative	-7024
▁passengers	-7025
▁Netherlands	-7026
▁Construction	-7027
▁observations	-7028
agn	-7029
oca	-7030
zen	-7031
▁82	-7032
burg	-7033
inje	-7034
ogen	-7035
olay	-7036
rant	-7037
yard	-7038
▁162	-7039
arked	-7040
etery	-7041
onder	-7042
▁1938	-7043
▁1959	-7044
▁1962	-7045
▁Bert	-7046
▁Chen	-7047
▁Cook	-7048
▁ethn	-7049
▁exha	-7050
▁flat	-7051
▁inte	-7052
anning	-7053
formed	-7054
iminal	-7055
itated	-7056
▁Geoff	-7057
▁Organ	-7058
▁Stock	-7059
▁Story	-7060
▁Sweet	-7061
▁absol	-7062
▁craft	-7063
▁fixed	-7064
▁gross	-7065
▁hydro	-7066
▁plain	-7067
▁raise	-7068
▁sight	-7069
▁watch	-7070
emetery	-7071
uscript	-7072
▁Korean	-7073
▁Pitman	-7074
▁Player	-7075
▁Queens	-7076
▁global	-7077
▁patron	-7078
▁praise	-7079
▁Atlanta	-7080
▁Emperor	-7081
▁Stefani	-7082
▁acclaim	-7083
▁batsman	-7084
▁goddess	-7085
▁objects	-7086
▁pitcher	-7087
▁returns	-7088
▁vessels	-7089
▁Cambodia	-7090
▁Guardian	-7091
▁Hospital	-7092
▁carrying	-7093
▁comments	-7094
▁defences	-7095
▁governor	-7096
▁retained	-7097
▁superior	-7098
▁villages	-7099
▁Elizabeth	-7100
▁biography	-7101
▁classical	-7102
▁involving	-7103
▁musicians	-7104
▁occasions	-7105
▁equivalent	-7106
▁understand	-7107
▁intensified	-7108
▁difficulties	-7109
▁representing	-7110
de	-7111
▁74	-7112
▁ju	-7113
▁ow	-7114
wich	-7115
▁Cru	-7116
▁Hun	-7117
▁Joy	-7118
▁Lab	-7119
▁Our	-7120
▁cry	-7121
▁fal	-7122
▁orn	-7123
▁ray	-7124
▁sam	-7125
▁Bass	-7126
▁Mega	-7127
▁answ	-7128
▁fine	-7129
▁mart	-7130
▁sees	-7131
▁sulf	-7132
pecies	-7133
▁Space	-7134
▁alleg	-7135
▁limit	-7136
▁moral	-7137
▁needs	-7138
▁renew	-7139
entures	-7140
terbury	-7141
▁Aerith	-7142
▁Design	-7143
▁camera	-7144
▁covers	-7145
▁divers	-7146
▁escort	-7147
▁online	-7148
▁prohib	-7149
▁voiced	-7150
▁Channel	-7151
▁Mediter	-7152
▁Protest	-7153
▁collaps	-7154
▁context	-7155
▁periods	-7156
▁reveals	-7157
▁Athletic	-7158
▁Phillies	-7159
▁concerts	-7160
▁exchange	-7161
▁purchase	-7162
▁Palestine	-7163
▁accompany	-7164
▁behaviour	-7165
▁committed	-7166
▁defeating	-7167
▁divisions	-7168
▁narrative	-7169
▁preferred	-7170
▁resources	-7171
▁simultane	-7172
▁survivors	-7173
▁Canterbury	-7174
▁Enterprise	-7175
▁influences	-7176
▁Mediterranean	-7177
ahl	-7178
esc	-7179
esi	-7180
rel	-7181
rig	-7182
uda	-7183
▁06	-7184
▁07	-7185
▁DC	-7186
▁Di	-7187
elli	-7188
fare	-7189
graf	-7190
mine	-7191
ophy	-7192
raph	-7193
▁161	-7194
▁Now	-7195
▁USD	-7196
▁ash	-7197
▁clo	-7198
▁cul	-7199
annah	-7200
apped	-7201
atech	-7202
▁Bark	-7203
▁Corn	-7204
▁Furt	-7205
▁Late	-7206
▁Link	-7207
▁Raff	-7208
▁Stop	-7209
▁Wicc	-7210
▁else	-7211
▁exit	-7212
▁fold	-7213
▁tick	-7214
athers	-7215
ooking	-7216
▁Labor	-7217
▁Rugby	-7218
▁agree	-7219
▁doesn	-7220
▁incom	-7221
▁rugby	-7222
▁steel	-7223
resents	-7224
▁Grammy	-7225
▁Mother	-7226
▁closer	-7227
▁detect	-7228
▁elabor	-7229
▁pupils	-7230
▁refers	-7231
▁rhythm	-7232
▁tribut	-7233
▁Furtado	-7234
▁Raffles	-7235
▁Special	-7236
▁absence	-7237
▁consult	-7238
▁Colorado	-7239
▁Markgraf	-7240
▁arrested	-7241
▁covering	-7242
▁deployed	-7243
▁dialogue	-7244
▁feelings	-7245
▁formally	-7246
▁hundreds	-7247
▁normally	-7248
▁products	-7249
▁proposal	-7250
▁visitors	-7251
▁Cathedral	-7252
▁considers	-7253
▁followers	-7254
▁municipal	-7255
▁operating	-7256
▁criticised	-7257
▁represents	-7258
▁legislation	-7259
▁Championships	-7260
ns	-7261
agu	-7262
eke	-7263
ras	-7264
▁93	-7265
▁PA	-7266
▁et	-7267
esse	-7268
isms	-7269
math	-7270
otic	-7271
▁166	-7272
▁Cab	-7273
▁Gib	-7274
▁Mel	-7275
▁NHL	-7276
▁dim	-7277
▁hyp	-7278
after	-7279
iders	-7280
organ	-7281
ullen	-7282
urday	-7283
▁Dark	-7284
▁Krak	-7285
▁Real	-7286
▁Usta	-7287
▁bone	-7288
▁deem	-7289
▁dens	-7290
▁diet	-7291
▁feed	-7292
▁pure	-7293
▁Along	-7294
▁Prior	-7295
▁Techn	-7296
▁amino	-7297
▁brick	-7298
▁drums	-7299
▁skull	-7300
▁surpr	-7301
▁Sholay	-7302
▁ensure	-7303
▁extent	-7304
▁option	-7305
▁poorly	-7306
▁stable	-7307
▁Fernand	-7308
▁classic	-7309
▁forming	-7310
▁infrast	-7311
▁moments	-7312
▁reconna	-7313
▁trading	-7314
▁Imperial	-7315
▁Saturday	-7316
▁displays	-7317
▁internal	-7318
▁muscaria	-7319
▁Dominican	-7320
▁interpret	-7321
▁stationed	-7322
▁submarine	-7323
▁biographer	-7324
▁convection	-7325
▁manuscript	-7326
▁prerogative	-7327
▁researchers	-7328
▁reconnaissance	-7329
▁reconstruction	-7330
ias	-7331
▁05	-7332
▁89	-7333
eman	-7334
eper	-7335
▁Bed	-7336
▁DAG	-7337
▁Dur	-7338
▁Hob	-7339
▁Hou	-7340
▁Kit	-7341
▁Tig	-7342
▁swe	-7343
iques	-7344
state	-7345
▁Cape	-7346
▁FIFA	-7347
▁Free	-7348
▁Marg	-7349
▁Sher	-7350
▁blow	-7351
▁lose	-7352
▁sunk	-7353
encies	-7354
▁Blood	-7355
▁Media	-7356
▁Treat	-7357
▁creek	-7358
▁lists	-7359
▁orbit	-7360
▁saves	-7361
▁verte	-7362
▁wings	-7363
vention	-7364
▁Maggie	-7365
▁Record	-7366
▁driven	-7367
▁memory	-7368
▁posted	-7369
▁useful	-7370
▁Mexican	-7371
▁cruiser	-7372
▁dynasty	-7373
▁intense	-7374
▁streets	-7375
▁annually	-7376
▁appropri	-7377
▁dramatic	-7378
▁entitled	-7379
▁injuries	-7380
▁modified	-7381
▁overwhel	-7382
▁purposes	-7383
▁withdrew	-7384
▁construct	-7385
▁extension	-7386
▁transition	-7387
▁influential	-7388
▁understanding	-7389
CA	-7390
ds	-7391
ora	-7392
rif	-7393
sch	-7394
uls	-7395
▁63	-7396
axon	-7397
etts	-7398
icop	-7399
inet	-7400
lete	-7401
mann	-7402
oral	-7403
rell	-7404
rine	-7405
vati	-7406
▁900	-7407
▁Hok	-7408
▁Hud	-7409
▁Mah	-7410
▁VII	-7411
▁ago	-7412
▁loy	-7413
▁orb	-7414
▁1928	-7415
▁Bron	-7416
▁Cult	-7417
▁Hind	-7418
▁Jenn	-7419
▁cong	-7420
▁hang	-7421
▁repr	-7422
▁tank	-7423
▁Front	-7424
▁ammun	-7425
▁chess	-7426
▁choir	-7427
▁clock	-7428
▁doubt	-7429
▁frame	-7430
▁panel	-7431
▁plane	-7432
▁rated	-7433
▁rates	-7434
▁ridge	-7435
▁saved	-7436
▁spoke	-7437
▁tests	-7438
▁tight	-7439
vements	-7440
▁Barker	-7441
▁Nichol	-7442
▁Norway	-7443
▁actual	-7444
▁burned	-7445
▁custom	-7446
▁demand	-7447
▁excess	-7448
▁satisf	-7449
restling	-7450
▁Israeli	-7451
▁Parvati	-7452
▁Réunion	-7453
▁crosses	-7454
▁engines	-7455
▁factors	-7456
▁helicop	-7457
▁jackrab	-7458
▁kingdom	-7459
▁picture	-7460
▁readers	-7461
achusetts	-7462
▁Township	-7463
▁chairman	-7464
▁dinosaur	-7465
▁exposure	-7466
▁happened	-7467
▁informed	-7468
▁restrict	-7469
▁severely	-7470
▁shipping	-7471
▁watching	-7472
▁writings	-7473
▁Education	-7474
▁essential	-7475
▁generated	-7476
▁installed	-7477
▁interests	-7478
▁materials	-7479
▁otherwise	-7480
▁ammunition	-7481
▁apparently	-7482
▁journalist	-7483
▁originated	-7484
▁subspecies	-7485
▁suggesting	-7486
▁Massachusetts	-7487
▁circumstances	-7488
ni	-7489
aga	-7490
utz	-7491
▁Sa	-7492
▁Xe	-7493
acle	-7494
ilst	-7495
ntav	-7496
oven	-7497
▁Ald	-7498
▁Cec	-7499
▁Int	-7500
▁Ton	-7501
ables	-7502
ateau	-7503
gency	-7504
heera	-7505
icate	-7506
raham	-7507
rants	-7508
▁1927	-7509
▁Gary	-7510
▁Gwen	-7511
▁Hamp	-7512
▁Kann	-7513
▁RAAF	-7514
▁belt	-7515
▁cart	-7516
▁ille	-7517
▁Eaton	-7518
▁Found	-7519
▁Guide	-7520
▁Patty	-7521
▁latex	-7522
▁layer	-7523
▁ready	-7524
▁recur	-7525
▁relie	-7526
▁Branch	-7527
▁Corpor	-7528
▁Having	-7529
▁Peters	-7530
▁Sports	-7531
▁Wilson	-7532
▁cancer	-7533
▁carved	-7534
▁causes	-7535
▁citing	-7536
▁eleven	-7537
▁listen	-7538
▁parish	-7539
▁shells	-7540
▁Federal	-7541
▁Kannada	-7542
▁Swedish	-7543
▁bombard	-7544
▁burning	-7545
▁climate	-7546
▁mixture	-7547
▁operate	-7548
▁survive	-7549
urricanes	-7550
▁Historic	-7551
▁Ministry	-7552
▁Portugal	-7553
▁Richmond	-7554
▁behavior	-7555
▁disaster	-7556
▁festival	-7557
▁generals	-7558
▁overseas	-7559
▁administr	-7560
▁departure	-7561
▁movements	-7562
▁partially	-7563
▁starlings	-7564
▁victories	-7565
▁impossible	-7566
▁resistance	-7567
▁instruments	-7568
▁substantial	-7569
▁transportation	-7570
OK	-7571
ASA	-7572
osl	-7573
osm	-7574
pes	-7575
rot	-7576
zac	-7577
aste	-7578
lets	-7579
life	-7580
pent	-7581
quez	-7582
urse	-7583
yria	-7584
▁CBS	-7585
▁Sis	-7586
▁Yug	-7587
▁phr	-7588
chang	-7589
iling	-7590
ithic	-7591
itzer	-7592
rquez	-7593
▁1860	-7594
▁1933	-7595
▁Ball	-7596
▁Howe	-7597
▁Mand	-7598
▁Pass	-7599
▁Pict	-7600
▁loan	-7601
▁shut	-7602
▁wasn	-7603
▁wine	-7604
andoba	-7605
forced	-7606
ricted	-7607
rorist	-7608
teenth	-7609
▁Baker	-7610
▁Eagle	-7611
▁Elect	-7612
▁Midge	-7613
▁Yanke	-7614
▁abund	-7615
▁consc	-7616
▁liber	-7617
▁looks	-7618
▁lover	-7619
▁marry	-7620
▁persu	-7621
▁rooms	-7622
▁spend	-7623
▁Bureau	-7624
▁Police	-7625
▁Yugosl	-7626
▁commem	-7627
▁models	-7628
▁spores	-7629
▁unlike	-7630
▁Masters	-7631
▁Simpson	-7632
▁Stewart	-7633
▁amateur	-7634
▁bearing	-7635
▁compete	-7636
▁listing	-7637
▁temples	-7638
▁tribute	-7639
▁windows	-7640
▁Khandoba	-7641
▁Veronica	-7642
▁instance	-7643
▁musician	-7644
▁resigned	-7645
▁restored	-7646
▁squadron	-7647
▁struggle	-7648
▁thinking	-7649
▁beautiful	-7650
▁dangerous	-7651
▁documents	-7652
▁engineers	-7653
▁premiered	-7654
▁sequences	-7655
▁afterwards	-7656
▁electronic	-7657
▁supporters	-7658
▁techniques	-7659
▁interesting	-7660
▁establishing	-7661
▁opportunities	-7662
DH	-7663
Hg	-7664
MO	-7665
sp	-7666
nal	-7667
pus	-7668
▁68	-7669
▁AP	-7670
▁Jr	-7671
LIMO	-7672
iped	-7673
leph	-7674
onto	-7675
osis	-7676
rene	-7677
roit	-7678
ryce	-7679
▁FRE	-7680
▁Roc	-7681
▁Tam	-7682
▁Who	-7683
▁eat	-7684
▁tip	-7685
omura	-7686
otton	-7687
▁1957	-7688
▁Bath	-7689
▁Last	-7690
▁Lith	-7691
▁Niel	-7692
▁Soon	-7693
▁Then	-7694
▁fram	-7695
▁gard	-7696
▁heat	-7697
▁inHg	-7698
▁mode	-7699
▁outl	-7700
▁pale	-7701
▁sale	-7702
roscop	-7703
uation	-7704
▁Girls	-7705
▁Robin	-7706
▁advis	-7707
▁coins	-7708
▁divor	-7709
▁merch	-7710
▁prove	-7711
▁recru	-7712
▁subst	-7713
▁union	-7714
ishment	-7715
western	-7716
▁Miller	-7717
▁Mulder	-7718
▁Philip	-7719
▁Wright	-7720
▁storms	-7721
▁vessel	-7722
▁weapon	-7723
atechism	-7724
entional	-7725
▁Detroit	-7726
▁FRELIMO	-7727
▁Jurchen	-7728
▁Justice	-7729
▁Phoenix	-7730
▁Toronto	-7731
▁achieve	-7732
▁artwork	-7733
▁designs	-7734
▁forcing	-7735
▁minimum	-7736
▁notably	-7737
▁offices	-7738
▁criminal	-7739
▁memorial	-7740
▁neighbor	-7741
▁predomin	-7742
▁remember	-7743
▁situated	-7744
▁thousand	-7745
▁acknowled	-7746
▁adventure	-7747
▁elsewhere	-7748
▁spiritual	-7749
▁Mozambique	-7750
▁artificial	-7751
▁properties	-7752
▁recognised	-7753
▁retirement	-7754
▁experiences	-7755
▁interaction	-7756
aka	-7757
cru	-7758
iar	-7759
▁67	-7760
▁Sb	-7761
▁Ts	-7762
ears	-7763
heme	-7764
rows	-7765
▁Cob	-7766
▁Ira	-7767
▁Kim	-7768
▁Raj	-7769
▁See	-7770
icide	-7771
order	-7772
orrow	-7773
▁1850	-7774
▁Bang	-7775
▁Bell	-7776
▁Benn	-7777
▁Celt	-7778
▁Prog	-7779
▁Rest	-7780
▁Sans	-7781
▁Vice	-7782
▁anek	-7783
▁conj	-7784
▁copy	-7785
▁frig	-7786
▁mask	-7787
▁obst	-7788
▁rect	-7789
▁shop	-7790
▁sons	-7791
▁tiss	-7792
▁vast	-7793
niowie	-7794
omatic	-7795
pended	-7796
▁Barry	-7797
▁Bulls	-7798
▁Death	-7799
▁Kevin	-7800
▁Minor	-7801
▁Moore	-7802
▁Point	-7803
▁check	-7804
▁costs	-7805
▁giant	-7806
▁psych	-7807
▁tanks	-7808
▁Albums	-7809
▁Hudson	-7810
▁Kansas	-7811
▁Russia	-7812
▁Scully	-7813
▁Season	-7814
▁agents	-7815
▁attrib	-7816
▁burial	-7817
▁engage	-7818
▁fallen	-7819
▁format	-7820
▁instru	-7821
▁resign	-7822
atherine	-7823
▁Coleman	-7824
▁Gilbert	-7825
▁Journey	-7826
▁Network	-7827
▁Perfect	-7828
▁biggest	-7829
▁cleared	-7830
▁delayed	-7831
▁depicts	-7832
▁founder	-7833
▁holiday	-7834
▁starred	-7835
▁trained	-7836
▁vehicle	-7837
niowiecki	-7838
▁counties	-7839
▁formerly	-7840
▁fountain	-7841
▁measured	-7842
▁networks	-7843
▁remarked	-7844
▁westward	-7845
▁convinced	-7846
▁depending	-7847
▁objective	-7848
▁programme	-7849
▁radiation	-7850
▁selection	-7851
▁Management	-7852
▁excavation	-7853
▁photograph	-7854
▁statistics	-7855
▁institution	-7856
▁characterized	-7857
▁infrastructure	-7858
oe	-7859
mel	-7860
nce	-7861
ruz	-7862
▁84	-7863
▁86	-7864
amps	-7865
heim	-7866
hist	-7867
otal	-7868
▁140	-7869
▁Mrs	-7870
▁Sid	-7871
▁rum	-7872
▁sed	-7873
akota	-7874
ategy	-7875
hered	-7876
oyage	-7877
uable	-7878
▁1926	-7879
▁Budd	-7880
▁Gate	-7881
▁Gray	-7882
▁Roth	-7883
▁Such	-7884
▁Trek	-7885
▁horn	-7886
▁impl	-7887
▁mamm	-7888
▁safe	-7889
▁vote	-7890
avalry	-7891
▁Anzac	-7892
▁Canal	-7893
▁Oscar	-7894
▁crake	-7895
▁crops	-7896
▁dream	-7897
assador	-7898
eratops	-7899
▁Hokies	-7900
▁Magdal	-7901
▁Silver	-7902
▁Warren	-7903
▁formal	-7904
▁helmet	-7905
▁render	-7906
▁rivers	-7907
▁skills	-7908
▁styles	-7909
▁Arsenal	-7910
▁Persian	-7911
▁Stories	-7912
▁benefit	-7913
▁clearly	-7914
▁closest	-7915
▁decides	-7916
▁housing	-7917
▁hunting	-7918
▁playoff	-7919
▁ranging	-7920
criptions	-7921
▁Memorial	-7922
▁citizens	-7923
▁claiming	-7924
▁compound	-7925
▁describe	-7926
▁feathers	-7927
▁opponent	-7928
▁railroad	-7929
▁Initially	-7930
▁Territory	-7931
▁audiences	-7932
▁determine	-7933
▁displayed	-7934
▁predators	-7935
▁reservoir	-7936
▁residence	-7937
▁Originally	-7938
▁Republican	-7939
▁differences	-7940
▁inscription	-7941
▁predecessor	-7942
▁restoration	-7943
▁Nevertheless	-7944
▁Organization	-7945
▁conservation	-7946
▁reinforcements	-7947
ef	-7948
Mal	-7949
SBN	-7950
aku	-7951
boy	-7952
itt	-7953
lie	-7954
abil	-7955
onia	-7956
rees	-7957
ucky	-7958
wald	-7959
▁Beh	-7960
▁Div	-7961
▁Nad	-7962
▁adm	-7963
▁err	-7964
▁jun	-7965
aints	-7966
iform	-7967
leged	-7968
oming	-7969
piece	-7970
rates	-7971
shore	-7972
yline	-7973
▁1905	-7974
▁Abby	-7975
▁Comb	-7976
▁ISBN	-7977
▁Rain	-7978
▁Valk	-7979
▁dipl	-7980
▁enth	-7981
▁prol	-7982
▁sung	-7983
▁teen	-7984
▁toll	-7985
Malley	-7986
rating	-7987
rosaur	-7988
▁Kelly	-7989
▁Rocky	-7990
▁Turks	-7991
▁Until	-7992
▁badly	-7993
▁cargo	-7994
▁funer	-7995
▁grown	-7996
▁slide	-7997
▁teamm	-7998
iveness	-7999
▁Chagas	-8000
▁Chapel	-8001
▁Legacy	-8002
▁Leslie	-8003
▁anyone	-8004
▁argues	-8005
▁arrive	-8006
▁cooper	-8007
▁ranges	-8008
▁ruling	-8009
▁throne	-8010
▁tunnel	-8011
▁Express	-8012
▁Mathews	-8013
▁alleged	-8014
▁degrees	-8015
▁grounds	-8016
▁install	-8017
▁possess	-8018
▁ranking	-8019
sequently	-8020
▁Category	-8021
▁Confeder	-8022
▁Jonathan	-8023
▁Valkyria	-8024
▁announce	-8025
▁astronom	-8026
▁attained	-8027
▁imprison	-8028
▁moderate	-8029
▁promised	-8030
▁prompted	-8031
▁regiment	-8032
▁Communist	-8033
▁Victorian	-8034
▁childhood	-8035
▁defending	-8036
▁elections	-8037
▁magnitude	-8038
▁temporary	-8039
▁Protestant	-8040
▁adaptation	-8041
▁restricted	-8042
▁scientists	-8043
▁thereafter	-8044
▁commandment	-8045
▁exclusively	-8046
▁perspective	-8047
▁preparation	-8048
▁representative	-8049
AT	-8050
CC	-8051
DS	-8052
zi	-8053
EFA	-8054
aun	-8055
err	-8056
ola	-8057
owa	-8058
put	-8059
rec	-8060
yer	-8061
▁08	-8062
▁58	-8063
▁78	-8064
burn	-8065
fess	-8066
gery	-8067
icia	-8068
icit	-8069
ishn	-8070
olen	-8071
uses	-8072
warf	-8073
▁178	-8074
▁Ash	-8075
▁Dyn	-8076
▁Gun	-8077
▁McL	-8078
▁Sle	-8079
▁Vul	-8080
▁bed	-8081
▁enh	-8082
▁nav	-8083
▁sad	-8084
▁sky	-8085
▁vac	-8086
alymp	-8087
eline	-8088
inery	-8089
inger	-8090
▁Dave	-8091
▁Hope	-8092
▁Iraq	-8093
▁Nebr	-8094
▁Plat	-8095
▁Show	-8096
▁Stal	-8097
▁UEFA	-8098
▁bear	-8099
▁bulk	-8100
▁cake	-8101
▁clim	-8102
▁earn	-8103
▁easy	-8104
▁huge	-8105
▁moon	-8106
▁myst	-8107
▁ster	-8108
▁twin	-8109
▁util	-8110
rupted	-8111
ternal	-8112
▁Allen	-8113
▁Event	-8114
▁Lover	-8115
▁Magad	-8116
▁bands	-8117
▁bones	-8118
▁caves	-8119
▁decay	-8120
▁deity	-8121
▁deleg	-8122
▁dwarf	-8123
▁gates	-8124
▁manga	-8125
▁nurse	-8126
▁prime	-8127
▁rifle	-8128
▁steam	-8129
▁Bertin	-8130
▁Brooks	-8131
▁Cheval	-8132
▁Treaty	-8133
▁consol	-8134
▁corner	-8135
▁deemed	-8136
▁desert	-8137
▁ethnic	-8138
▁exists	-8139
▁poison	-8140
▁Profess	-8141
▁amounts	-8142
▁charged	-8143
▁erected	-8144
▁handled	-8145
▁injured	-8146
▁reprodu	-8147
▁resumed	-8148
▁sisters	-8149
▁theater	-8150
▁Nebraska	-8151
▁Paralymp	-8152
▁boundary	-8153
▁colonies	-8154
▁engineer	-8155
▁everyone	-8156
▁explains	-8157
▁outbreak	-8158
▁relation	-8159
▁Waterfall	-8160
▁northward	-8161
▁Democratic	-8162
▁Magadheera	-8163
▁celebrated	-8164
▁Outstanding	-8165
▁advertising	-8166
▁inhabitants	-8167
▁architecture	-8168
▁strengthened	-8169
SA	-8170
kh	-8171
ASP	-8172
gov	-8173
ris	-8174
rog	-8175
uez	-8176
▁aw	-8177
apse	-8178
iggs	-8179
osom	-8180
▁113	-8181
▁165	-8182
▁Ark	-8183
▁Hor	-8184
▁Rem	-8185
▁rib	-8186
▁wet	-8187
emies	-8188
ifies	-8189
illed	-8190
night	-8191
omtav	-8192
otype	-8193
plete	-8194
rophy	-8195
zegov	-8196
▁1924	-8197
▁1925	-8198
▁Beet	-8199
▁Djok	-8200
▁Emmy	-8201
▁Lang	-8202
▁Much	-8203
▁Nash	-8204
▁Thus	-8205
▁anth	-8206
▁bell	-8207
▁bind	-8208
▁canc	-8209
▁cars	-8210
▁draf	-8211
▁fant	-8212
▁fate	-8213
▁inse	-8214
▁lake	-8215
▁rend	-8216
▁tack	-8217
▁turb	-8218
action	-8219
apping	-8220
urrent	-8221
weight	-8222
▁Davis	-8223
▁Pryce	-8224
▁Tracy	-8225
▁breed	-8226
▁judge	-8227
▁rever	-8228
▁steep	-8229
▁texts	-8230
▁Harold	-8231
▁Heaven	-8232
▁Madrid	-8233
▁Rifles	-8234
▁banned	-8235
▁condem	-8236
▁driver	-8237
▁enters	-8238
▁priest	-8239
▁pursue	-8240
▁supern	-8241
zegovina	-8242
▁Asomtav	-8243
▁Nielsen	-8244
▁Railway	-8245
▁Univers	-8246
▁Yankees	-8247
▁demands	-8248
▁exposed	-8249
▁partner	-8250
▁profile	-8251
▁tactics	-8252
▁turrets	-8253
▁warning	-8254
▁Business	-8255
▁Djokovic	-8256
▁designer	-8257
▁dominant	-8258
▁executed	-8259
▁garrison	-8260
▁graphics	-8261
▁landings	-8262
▁strategy	-8263
▁Catechism	-8264
▁fundament	-8265
▁monuments	-8266
▁prevented	-8267
▁scattered	-8268
▁uncertain	-8269
eorological	-8270
▁difference	-8271
▁recordings	-8272
▁substitute	-8273
▁Asomtavruli	-8274
▁Herzegovina	-8275
▁application	-8276
▁distinctive	-8277
▁excavations	-8278
▁productions	-8279
▁settlements	-8280
▁demonstrated	-8281
▁inscriptions	-8282
▁distinguished	-8283
AC	-8284
EC	-8285
ij	-8286
oli	-8287
oux	-8288
rus	-8289
ugh	-8290
▁NL	-8291
▁Ve	-8292
arte	-8293
avel	-8294
ifer	-8295
imal	-8296
noon	-8297
rior	-8298
udes	-8299
▁McG	-8300
▁fee	-8301
▁gro	-8302
borne	-8303
chell	-8304
essee	-8305
fully	-8306
inian	-8307
mouth	-8308
otten	-8309
▁1934	-8310
▁Clin	-8311
▁Dean	-8312
▁Fall	-8313
▁Glob	-8314
▁Jews	-8315
▁Kong	-8316
▁Shel	-8317
▁Veer	-8318
▁duty	-8319
▁mbar	-8320
▁offs	-8321
▁pine	-8322
▁sure	-8323
azines	-8324
▁Anglo	-8325
▁Bible	-8326
▁Congo	-8327
▁Lower	-8328
▁Those	-8329
▁Women	-8330
▁aster	-8331
▁comed	-8332
▁drain	-8333
▁edges	-8334
▁elder	-8335
▁false	-8336
▁feels	-8337
▁forty	-8338
▁frust	-8339
▁innov	-8340
▁liked	-8341
▁stood	-8342
▁tenth	-8343
▁trust	-8344
▁usage	-8345
ignment	-8346
ilation	-8347
▁Alfred	-8348
▁Berlin	-8349
▁Celtic	-8350
▁Murray	-8351
▁boxing	-8352
▁pounds	-8353
▁prompt	-8354
▁revers	-8355
▁sacred	-8356
▁satell	-8357
▁scheme	-8358
▁smooth	-8359
▁sounds	-8360
▁triple	-8361
▁Gallery	-8362
▁Houston	-8363
▁Madison	-8364
▁Overall	-8365
▁altered	-8366
▁amongst	-8367
▁centers	-8368
▁charity	-8369
▁congreg	-8370
▁martial	-8371
▁succeed	-8372
▁Original	-8373
▁approval	-8374
▁assisted	-8375
▁asteroid	-8376
▁ceratops	-8377
▁commemor	-8378
▁downtown	-8379
▁portrait	-8380
▁premiere	-8381
▁releases	-8382
▁striking	-8383
▁subjects	-8384
▁Tennessee	-8385
▁afternoon	-8386
▁defenders	-8387
▁emergency	-8388
▁initiated	-8389
▁magazines	-8390
▁suspended	-8391
▁indicating	-8392
▁philosophy	-8393
▁Corporation	-8394
▁considering	-8395
▁residential	-8396
▁tournaments	-8397
▁translation	-8398
▁Independence	-8399
▁archaeologist	-8400
▁collaboration	-8401
ois	-8402
oko	-8403
ote	-8404
pic	-8405
sex	-8406
▁09	-8407
▁92	-8408
cake	-8409
ilty	-8410
utor	-8411
▁101	-8412
▁Bat	-8413
▁Esh	-8414
▁Ken	-8415
▁NDH	-8416
▁SAS	-8417
▁Wag	-8418
▁bod	-8419
▁lam	-8420
▁obl	-8421
agine	-8422
burgh	-8423
ellar	-8424
neath	-8425
tario	-8426
▁1000	-8427
▁1870	-8428
▁1908	-8429
▁Aman	-8430
▁Auth	-8431
▁Belg	-8432
▁Cubs	-8433
▁Fran	-8434
▁Kurt	-8435
▁Mach	-8436
▁Next	-8437
▁cous	-8438
▁fert	-8439
▁poll	-8440
▁tale	-8441
amount	-8442
encing	-8443
ffield	-8444
▁Again	-8445
▁Grade	-8446
▁Naval	-8447
▁Swiss	-8448
▁Wicca	-8449
▁Xenon	-8450
▁adopt	-8451
▁crews	-8452
▁explo	-8453
▁fatal	-8454
▁fifty	-8455
▁flash	-8456
▁roots	-8457
ologies	-8458
▁Eshmun	-8459
▁Finals	-8460
▁Giants	-8461
▁Hawaii	-8462
▁Priest	-8463
▁Wagner	-8464
▁bishop	-8465
▁crisis	-8466
▁guilty	-8467
▁reveal	-8468
▁toured	-8469
ervative	-8470
▁Imagine	-8471
▁Mariana	-8472
▁Ontario	-8473
▁Release	-8474
▁Village	-8475
▁chamber	-8476
▁deliber	-8477
▁nations	-8478
▁rebuilt	-8479
▁talking	-8480
▁testing	-8481
▁violent	-8482
▁Romanian	-8483
▁delivery	-8484
▁frequent	-8485
▁ordering	-8486
▁realized	-8487
▁receives	-8488
▁reducing	-8489
▁schedule	-8490
▁Mountains	-8491
▁Sheffield	-8492
▁battlecru	-8493
▁impressed	-8494
▁requested	-8495
▁variation	-8496
▁Chevaliers	-8497
▁colleagues	-8498
▁conclusion	-8499
▁definition	-8500
▁eliminated	-8501
▁manufactur	-8502
▁occupation	-8503
▁respective	-8504
▁quarterback	-8505
▁Conservation	-8506
▁northeastern	-8507
▁communication	-8508
▁simultaneously	-8509
yo	-8510
ait	-8511
don	-8512
nda	-8513
oes	-8514
tah	-8515
▁02	-8516
▁CP	-8517
▁NS	-8518
aski	-8519
gars	-8520
▁123	-8521
▁155	-8522
▁ABC	-8523
▁Ace	-8524
▁Bah	-8525
▁Dig	-8526
▁Dog	-8527
▁Ple	-8528
▁cup	-8529
▁net	-8530
▁vul	-8531
adier	-8532
jamin	-8533
oples	-8534
regon	-8535
▁1923	-8536
▁Anne	-8537
▁Caes	-8538
▁Mant	-8539
▁Omar	-8540
▁Rhys	-8541
▁Stav	-8542
▁asks	-8543
▁clin	-8544
▁gets	-8545
▁jobs	-8546
▁nurs	-8547
▁pull	-8548
▁send	-8549
▁spur	-8550
aganda	-8551
ellect	-8552
rapped	-8553
▁Asian	-8554
▁Carre	-8555
▁Evans	-8556
▁Ghost	-8557
▁Hills	-8558
▁Leigh	-8559
▁Peach	-8560
▁carri	-8561
▁metre	-8562
▁rhyme	-8563
▁trick	-8564
▁upset	-8565
▁yield	-8566
▁Dakota	-8567
▁Labour	-8568
▁Oregon	-8569
▁culmin	-8570
▁helium	-8571
▁kilome	-8572
▁mathem	-8573
▁refuge	-8574
▁rounds	-8575
▁strict	-8576
▁venues	-8577
▁Ancient	-8578
▁Pulaski	-8579
▁fifteen	-8580
▁obvious	-8581
▁peaking	-8582
▁runners	-8583
▁Benjamin	-8584
▁Harrison	-8585
▁Hawaiian	-8586
▁interpre	-8587
▁operates	-8588
▁shoulder	-8589
▁visiting	-8590
▁Christine	-8591
▁collapsed	-8592
▁elaborate	-8593
▁employees	-8594
▁intellect	-8595
▁molecules	-8596
▁organised	-8597
▁sentences	-8598
▁Eventually	-8599
▁Queensland	-8600
▁components	-8601
▁impression	-8602
▁mechanical	-8603
▁newspapers	-8604
▁withdrawal	-8605
▁potentially	-8606
▁assassination	-8607
Pa	-8608
ba	-8609
ogy	-8610
ohl	-8611
oln	-8612
uty	-8613
▁SS	-8614
▁Sn	-8615
agod	-8616
iney	-8617
osex	-8618
raia	-8619
ucks	-8620
umin	-8621
▁163	-8622
▁Mit	-8623
▁Nar	-8624
▁Nob	-8625
▁Pow	-8626
▁Sem	-8627
▁Sup	-8628
▁USS	-8629
▁Web	-8630
▁ori	-8631
▁wel	-8632
acked	-8633
anyon	-8634
apore	-8635
ekend	-8636
eless	-8637
ernon	-8638
obile	-8639
▁1830	-8640
▁Case	-8641
▁Corb	-8642
▁Eric	-8643
▁Linc	-8644
▁Plan	-8645
▁Race	-8646
▁Sand	-8647
▁Wing	-8648
▁abol	-8649
▁dams	-8650
▁dies	-8651
▁gust	-8652
▁isot	-8653
▁ride	-8654
▁sang	-8655
▁summ	-8656
▁vice	-8657
atinum	-8658
ieties	-8659
▁Banks	-8660
▁Korea	-8661
▁Prest	-8662
▁Trust	-8663
▁Valve	-8664
▁acids	-8665
▁clust	-8666
▁diagn	-8667
▁drove	-8668
▁inhab	-8669
▁kills	-8670
▁paras	-8671
▁renov	-8672
▁valid	-8673
angular	-8674
illiant	-8675
imetres	-8676
▁Canyon	-8677
▁Charts	-8678
▁Sisler	-8679
▁asking	-8680
▁extrat	-8681
▁parody	-8682
▁remove	-8683
▁stores	-8684
▁Commons	-8685
▁Islamic	-8686
▁Lincoln	-8687
▁Program	-8688
▁Section	-8689
▁Sorraia	-8690
▁Supreme	-8691
▁columns	-8692
▁conflic	-8693
▁dispute	-8694
▁earning	-8695
▁factory	-8696
▁putting	-8697
▁seeking	-8698
▁surgery	-8699
▁trouble	-8700
▁Children	-8701
▁artistic	-8702
▁constant	-8703
▁creative	-8704
▁machines	-8705
▁suitable	-8706
▁youngest	-8707
▁Similarly	-8708
▁Singapore	-8709
▁Woodhouse	-8710
▁advancing	-8711
▁directors	-8712
▁referring	-8713
▁sentiment	-8714
▁Foundation	-8715
▁boundaries	-8716
▁comparison	-8717
▁compliment	-8718
▁documented	-8719
▁expression	-8720
▁spacecraft	-8721
▁structural	-8722
▁theatrical	-8723
▁translated	-8724
▁Christopher	-8725
▁personality	-8726
▁contribution	-8727
▁environmental	-8728
▁extratropical	-8729
▁classification	-8730
IA	-8731
NC	-8732
NL	-8733
uv	-8734
ugu	-8735
▁DD	-8736
▁Pf	-8737
Grom	-8738
dney	-8739
enic	-8740
inge	-8741
krit	-8742
mont	-8743
oard	-8744
unes	-8745
▁766	-8746
▁Bab	-8747
▁Bad	-8748
▁Die	-8749
▁Lud	-8750
▁Sym	-8751
▁alt	-8752
▁kit	-8753
▁lat	-8754
acruz	-8755
ashed	-8756
byter	-8757
enden	-8758
etime	-8759
inder	-8760
odore	-8761
▁1907	-8762
▁Bidd	-8763
▁Conc	-8764
▁Cred	-8765
▁Face	-8766
▁Hans	-8767
▁Jard	-8768
▁Know	-8769
▁Lost	-8770
▁Near	-8771
▁Nett	-8772
▁Prix	-8773
▁Publ	-8774
▁Sant	-8775
▁WASP	-8776
▁beam	-8777
▁cave	-8778
▁coff	-8779
▁enzy	-8780
▁gray	-8781
▁hull	-8782
▁lies	-8783
▁plus	-8784
▁swim	-8785
ennium	-8786
▁Cress	-8787
▁Jason	-8788
▁Obser	-8789
▁Prize	-8790
▁Where	-8791
▁bases	-8792
▁falls	-8793
▁print	-8794
▁semif	-8795
▁solar	-8796
▁twent	-8797
▁Briggs	-8798
▁Cooper	-8799
▁Cullen	-8800
▁Ingres	-8801
▁Telugu	-8802
▁anthem	-8803
▁expert	-8804
▁honour	-8805
▁notice	-8806
▁rising	-8807
▁sample	-8808
▁superv	-8809
▁tempor	-8810
▁topped	-8811
▁trials	-8812
▁Belgium	-8813
▁Jardine	-8814
▁Natural	-8815
▁Nettles	-8816
▁Species	-8817
▁bridges	-8818
▁disagre	-8819
▁explain	-8820
▁fishing	-8821
▁library	-8822
▁powered	-8823
▁prepare	-8824
▁removal	-8825
▁revised	-8826
▁segment	-8827
▁Sanskrit	-8828
▁Together	-8829
▁Veracruz	-8830
▁armament	-8831
▁birthday	-8832
▁collapse	-8833
▁produces	-8834
▁spending	-8835
▁vertical	-8836
▁Biddenden	-8837
▁Champions	-8838
▁Cresswell	-8839
▁Louisiana	-8840
▁favorable	-8841
▁inclusion	-8842
▁professor	-8843
▁questions	-8844
▁reflected	-8845
▁satellite	-8846
▁submitted	-8847
▁Chronicles	-8848
▁completing	-8849
▁personally	-8850
▁sculptures	-8851
▁Furthermore	-8852
▁archaeology	-8853
▁battleships	-8854
▁encountered	-8855
▁programming	-8856
▁temporarily	-8857
▁organisation	-8858
▁communications	-8859
▁representation	-8860
ulu	-8861
▁03	-8862
▁Wu	-8863
▁Yo	-8864
eign	-8865
elle	-8866
erto	-8867
gets	-8868
ieth	-8869
rono	-8870
▁Dud	-8871
▁Mir	-8872
▁Tok	-8873
▁XII	-8874
▁bom	-8875
▁hem	-8876
▁tru	-8877
▁ump	-8878
enses	-8879
ewise	-8880
icity	-8881
phoon	-8882
▁1922	-8883
▁ARVN	-8884
▁Anti	-8885
▁Bald	-8886
▁Ders	-8887
▁Magn	-8888
▁Sony	-8889
▁barr	-8890
▁boys	-8891
▁foss	-8892
▁phen	-8893
▁slip	-8894
agogue	-8895
howitz	-8896
incial	-8897
irates	-8898
urally	-8899
▁Jacob	-8900
▁Neves	-8901
▁Sioux	-8902
▁Youth	-8903
▁canal	-8904
▁chest	-8905
▁coinc	-8906
▁fault	-8907
▁surge	-8908
▁wives	-8909
itively	-8910
minster	-8911
▁Chrono	-8912
▁Dudley	-8913
▁Ernest	-8914
▁Michel	-8915
▁Social	-8916
▁choose	-8917
▁empire	-8918
▁fitted	-8919
▁genera	-8920
▁hidden	-8921
▁indeed	-8922
▁junior	-8923
▁meters	-8924
▁phrase	-8925
▁pretty	-8926
▁pulled	-8927
▁repair	-8928
▁sailed	-8929
▁shares	-8930
▁traded	-8931
▁weekly	-8932
▁wishes	-8933
ansfield	-8934
overeign	-8935
▁Amanita	-8936
▁Bennett	-8937
▁Clinton	-8938
▁Digital	-8939
▁armored	-8940
▁beliefs	-8941
▁charted	-8942
▁evident	-8943
▁illegal	-8944
▁joining	-8945
▁keeping	-8946
▁neutral	-8947
▁origins	-8948
▁prefect	-8949
▁uniform	-8950
▁updated	-8951
▁Campbell	-8952
▁Register	-8953
▁arriving	-8954
▁emphasis	-8955
▁highways	-8956
▁mainland	-8957
▁pleasure	-8958
▁upgraded	-8959
▁Nevesinje	-8960
▁Pattycake	-8961
▁assembled	-8962
▁struggled	-8963
▁underwent	-8964
▁Dershowitz	-8965
▁accomplish	-8966
▁biological	-8967
▁convention	-8968
▁demolished	-8969
▁discussion	-8970
▁objectives	-8971
▁publishing	-8972
▁Westminster	-8973
▁nominations	-8974
▁investigation	-8975
SP	-8976
aho	-8977
▁Az	-8978
▁ax	-8979
acre	-8980
nels	-8981
otte	-8982
rich	-8983
▁170	-8984
▁360	-8985
▁Alb	-8986
▁Bor	-8987
▁Ian	-8988
▁Let	-8989
▁WWF	-8990
acles	-8991
anzib	-8992
brace	-8993
ersed	-8994
▁1861	-8995
▁Kirk	-8996
▁Pohl	-8997
▁Tony	-8998
▁Weir	-8999
▁alph	-9000
▁bare	-9001
▁clay	-9002
▁dict	-9003
▁fasc	-9004
▁ibis	-9005
▁pace	-9006
▁pion	-9007
▁sect	-9008
▁suit	-9009
ivated	-9010
likely	-9011
orable	-9012
▁Abbey	-9013
▁Cater	-9014
▁Europ	-9015
▁Idaho	-9016
▁Keith	-9017
▁Magic	-9018
▁Parks	-9019
▁Usher	-9020
▁categ	-9021
▁chrom	-9022
▁lanes	-9023
▁pages	-9024
▁quant	-9025
▁shift	-9026
▁strip	-9027
▁threw	-9028
olithic	-9029
▁Caesar	-9030
▁Sweden	-9031
▁Wander	-9032
▁Zanzib	-9033
▁advice	-9034
▁aggreg	-9035
▁assess	-9036
▁beings	-9037
▁cinema	-9038
▁dispat	-9039
▁enthus	-9040
▁export	-9041
▁finale	-9042
▁fusion	-9043
▁margin	-9044
▁merely	-9045
▁neighb	-9046
▁profit	-9047
▁whilst	-9048
inations	-9049
tropical	-9050
▁Canning	-9051
▁Country	-9052
▁Defense	-9053
▁Indones	-9054
▁Jackets	-9055
▁Preston	-9056
▁Switzer	-9057
▁Without	-9058
▁carries	-9059
▁disband	-9060
▁feeding	-9061
▁peoples	-9062
▁reforms	-9063
▁shorter	-9064
▁tourist	-9065
▁unnamed	-9066
ropolitan	-9067
▁Building	-9068
▁Columbus	-9069
▁Mitchell	-9070
▁advertis	-9071
▁electron	-9072
▁eventual	-9073
▁facility	-9074
▁recovery	-9075
▁rotation	-9076
▁starring	-9077
▁unlikely	-9078
▁Argentine	-9079
▁Charlotte	-9080
▁Wanderers	-9081
▁abilities	-9082
▁certainly	-9083
▁daughters	-9084
▁reduction	-9085
▁controller	-9086
▁percentage	-9087
▁punishment	-9088
▁resolution	-9089
▁Switzerland	-9090
▁appointment	-9091
▁illustrated	-9092
▁conversation	-9093
▁measurements	-9094
▁negotiations	-9095
▁neighborhood	-9096
▁presentation	-9097
▁publications	-9098
▁southeastern	-9099
▁architectural	-9100
iao	-9101
nen	-9102
opl	-9103
▁Ky	-9104
▁WN	-9105
▁sq	-9106
▁vs	-9107
Tube	-9108
hang	-9109
oren	-9110
otes	-9111
oust	-9112
soft	-9113
uart	-9114
urst	-9115
usic	-9116
vant	-9117
yram	-9118
▁117	-9119
▁350	-9120
▁Amb	-9121
▁Fle	-9122
▁Imm	-9123
▁Jen	-9124
▁Nel	-9125
▁Non	-9126
▁Pak	-9127
▁Sab	-9128
▁buy	-9129
▁gap	-9130
▁tub	-9131
acter	-9132
aired	-9133
arant	-9134
leton	-9135
odrom	-9136
ospel	-9137
▁Bird	-9138
▁Bush	-9139
▁Dahl	-9140
▁Feel	-9141
▁Main	-9142
▁Nazi	-9143
▁Sign	-9144
▁Supp	-9145
▁guid	-9146
▁hosp	-9147
artney	-9148
embers	-9149
father	-9150
ishops	-9151
▁Dover	-9152
▁Freak	-9153
▁Isesi	-9154
▁Nadal	-9155
▁Tales	-9156
▁Tonin	-9157
▁Upper	-9158
▁acute	-9159
▁adapt	-9160
▁advoc	-9161
▁anime	-9162
▁chain	-9163
▁facil	-9164
▁forth	-9165
▁mines	-9166
▁signs	-9167
▁tooth	-9168
▁wider	-9169
ensions	-9170
inction	-9171
osexual	-9172
▁Carmel	-9173
▁Health	-9174
▁Herald	-9175
▁Hoover	-9176
▁Madero	-9177
▁Stuart	-9178
▁Twenty	-9179
▁Walker	-9180
▁Yellow	-9181
▁chicks	-9182
▁circle	-9183
▁cotton	-9184
▁devast	-9185
▁mobile	-9186
▁reader	-9187
▁rebell	-9188
▁string	-9189
▁themed	-9190
atically	-9191
▁Alberta	-9192
▁Belgian	-9193
▁Credits	-9194
▁Everton	-9195
▁Gardner	-9196
▁Lessing	-9197
▁YouTube	-9198
▁ceremon	-9199
▁closure	-9200
▁contrad	-9201
▁enemies	-9202
▁genetic	-9203
▁gravity	-9204
▁helping	-9205
▁illness	-9206
▁ongoing	-9207
▁onwards	-9208
▁stellar	-9209
▁suicide	-9210
▁telling	-9211
▁waiting	-9212
▁Delaware	-9213
▁Heritage	-9214
▁Province	-9215
▁brigades	-9216
▁confront	-9217
▁controls	-9218
▁duration	-9219
▁magnetic	-9220
▁offering	-9221
▁patterns	-9222
▁McCartney	-9223
▁Paramount	-9224
▁batteries	-9225
▁decisions	-9226
▁depicting	-9227
▁disappoin	-9228
▁elevation	-9229
▁entertain	-9230
▁pregnancy	-9231
▁travelled	-9232
▁Christians	-9233
▁aggressive	-9234
▁profession	-9235
▁supplement	-9236
▁Interchange	-9237
▁accompanying	-9238
▁historically	-9239
▁significance	-9240
iy	-9241
bra	-9242
ean	-9243
rik	-9244
▁AT	-9245
▁Mk	-9246
arsh	-9247
face	-9248
olia	-9249
rett	-9250
roph	-9251
star	-9252
wick	-9253
▁Bow	-9254
▁Fem	-9255
▁Fif	-9256
▁Las	-9257
▁McE	-9258
▁Mun	-9259
▁Rom	-9260
▁Sin	-9261
▁hyg	-9262
▁sup	-9263
▁tom	-9264
arded	-9265
herry	-9266
tered	-9267
water	-9268
where	-9269
yclic	-9270
▁1895	-9271
▁1902	-9272
▁Disc	-9273
▁Kate	-9274
▁Khan	-9275
▁Lane	-9276
▁Priv	-9277
▁encl	-9278
▁hook	-9279
▁jury	-9280
▁liqu	-9281
▁symp	-9282
▁wish	-9283
elaide	-9284
imeter	-9285
penter	-9286
▁Andre	-9287
▁Heart	-9288
▁aimed	-9289
▁diver	-9290
▁girls	-9291
▁grave	-9292
▁pairs	-9293
▁shear	-9294
▁shirt	-9295
▁spots	-9296
▁stead	-9297
▁stock	-9298
itarian	-9299
usaders	-9300
▁Centre	-9301
▁Observ	-9302
▁Rivers	-9303
▁Sydney	-9304
▁dubbed	-9305
▁exclud	-9306
▁parent	-9307
▁promin	-9308
▁riding	-9309
▁signal	-9310
▁values	-9311
▁Critics	-9312
▁Leonard	-9313
▁Madonna	-9314
▁Perform	-9315
▁Seattle	-9316
▁acyclic	-9317
▁closing	-9318
▁donated	-9319
▁exactly	-9320
▁farmers	-9321
▁freedom	-9322
▁platoon	-9323
▁printed	-9324
▁raising	-9325
▁terrain	-9326
▁trapped	-9327
▁Adelaide	-9328
▁Arkansas	-9329
▁accurate	-9330
▁category	-9331
▁commands	-9332
▁doctrine	-9333
▁embarked	-9334
▁hydrogen	-9335
▁phenomen	-9336
▁policies	-9337
▁requires	-9338
▁Stavanger	-9339
▁cancelled	-9340
▁conflicts	-9341
▁decorated	-9342
▁destroyer	-9343
▁execution	-9344
▁indicates	-9345
▁preparing	-9346
▁searching	-9347
▁similarly	-9348
▁Allosaurus	-9349
▁commanders	-9350
▁connecting	-9351
▁conversion	-9352
▁permission	-9353
▁fundamental	-9354
▁Headquarters	-9355
▁concentrated	-9356
▁universities	-9357
han	-9358
lee	-9359
oom	-9360
oyd	-9361
▁01	-9362
anag	-9363
cour	-9364
iang	-9365
ipes	-9366
isle	-9367
lesh	-9368
lock	-9369
oken	-9370
pled	-9371
rose	-9372
▁125	-9373
▁Abd	-9374
▁Dum	-9375
▁HNC	-9376
▁McD	-9377
▁Nav	-9378
▁Vic	-9379
▁hPa	-9380
▁jew	-9381
▁tox	-9382
anzer	-9383
bound	-9384
dream	-9385
▁1840	-9386
▁Beau	-9387
▁Boys	-9388
▁Eccl	-9389
▁Food	-9390
▁Hugh	-9391
▁Mars	-9392
▁Maur	-9393
▁Rick	-9394
▁anch	-9395
▁bore	-9396
▁caps	-9397
▁gift	-9398
▁nave	-9399
▁reop	-9400
▁sket	-9401
▁wore	-9402
active	-9403
atever	-9404
ffling	-9405
ternet	-9406
thodon	-9407
▁Books	-9408
▁Eight	-9409
▁Falls	-9410
▁Harry	-9411
▁Leeds	-9412
▁Polit	-9413
▁Serbs	-9414
▁affil	-9415
▁bears	-9416
▁beats	-9417
▁crash	-9418
▁dense	-9419
▁fewer	-9420
▁flesh	-9421
▁infer	-9422
▁logic	-9423
▁ninet	-9424
▁overt	-9425
▁phone	-9426
▁ranks	-9427
▁seats	-9428
▁sleep	-9429
▁steps	-9430
▁sympt	-9431
▁Bulgar	-9432
▁Corpus	-9433
▁Donald	-9434
▁Jeremy	-9435
▁Morgan	-9436
▁Panzer	-9437
▁Survey	-9438
▁Tigers	-9439
▁Watson	-9440
▁abroad	-9441
▁apprec	-9442
▁ashore	-9443
▁ballad	-9444
▁cousin	-9445
▁credit	-9446
▁danger	-9447
▁inning	-9448
▁melody	-9449
▁mental	-9450
▁operas	-9451
▁pilots	-9452
▁prosec	-9453
▁sevent	-9454
▁solely	-9455
▁tenure	-9456
▁tissue	-9457
▁vertex	-9458
fflinger	-9459
▁Angelou	-9460
▁Christi	-9461
▁Dynasty	-9462
▁Francis	-9463
▁Wyoming	-9464
▁backing	-9465
▁beating	-9466
▁credits	-9467
▁evolved	-9468
▁failing	-9469
▁harbour	-9470
▁pursuit	-9471
▁reaches	-9472
▁rushing	-9473
▁touring	-9474
▁unclear	-9475
▁wealthy	-9476
▁wickets	-9477
▁Broadway	-9478
▁Daydream	-9479
▁Internet	-9480
▁animated	-9481
▁counterp	-9482
▁detected	-9483
▁friendly	-9484
▁leukemia	-9485
▁solution	-9486
▁Fernandez	-9487
▁Hungarian	-9488
▁civilians	-9489
▁functions	-9490
▁intercept	-9491
▁molecular	-9492
▁mountains	-9493
▁prisoners	-9494
▁qualified	-9495
▁strongest	-9496
▁withdrawn	-9497
▁positively	-9498
▁vegetation	-9499
▁Derfflinger	-9500
▁Description	-9501
▁Nightingale	-9502
▁continental	-9503
▁internation	-9504
▁maintaining	-9505
▁compositions	-9506
▁interactions	-9507
▁temperatures	-9508
▁transmission	-9509
▁characteristic	-9510
mn	-9511
po	-9512
ta	-9513
alf	-9514
aya	-9515
aza	-9516
equ	-9517
fra	-9518
iac	-9519
ows	-9520
▁CO	-9521
▁id	-9522
bing	-9523
hesh	-9524
omic	-9525
oyle	-9526
ygen	-9527
zong	-9528
▁105	-9529
▁114	-9530
▁127	-9531
▁168	-9532
▁Dub	-9533
▁Got	-9534
▁Hop	-9535
▁Rap	-9536
▁Zoo	-9537
▁cyt	-9538
aelic	-9539
ector	-9540
endar	-9541
enger	-9542
entle	-9543
fraid	-9544
power	-9545
ultan	-9546
▁1889	-9547
▁1903	-9548
▁Barn	-9549
▁Born	-9550
▁Kody	-9551
▁Maya	-9552
▁Neil	-9553
▁Poly	-9554
▁Sora	-9555
▁Utah	-9556
▁XIII	-9557
▁amph	-9558
▁dual	-9559
▁extr	-9560
ective	-9561
eltown	-9562
esters	-9563
estyle	-9564
ingray	-9565
rehens	-9566
schild	-9567
street	-9568
yramid	-9569
▁Actor	-9570
▁Arabs	-9571
▁Cyrus	-9572
▁Heavy	-9573
▁Trees	-9574
▁Witch	-9575
▁Years	-9576
▁acted	-9577
▁brain	-9578
▁goods	-9579
▁ideal	-9580
▁inher	-9581
tenance	-9582
▁Almost	-9583
▁Author	-9584
▁Batter	-9585
▁Bedell	-9586
▁Gaelic	-9587
▁Living	-9588
▁beauty	-9589
▁handed	-9590
▁obtain	-9591
▁oxygen	-9592
▁Cricket	-9593
▁Library	-9594
▁Mantell	-9595
▁Romania	-9596
▁Welling	-9597
▁anticip	-9598
▁bowling	-9599
▁clothes	-9600
▁compens	-9601
▁cougars	-9602
▁gaining	-9603
▁heavier	-9604
▁restore	-9605
▁revival	-9606
▁starter	-9607
▁targets	-9608
▁walking	-9609
▁Administ	-9610
▁Antimony	-9611
▁Baseball	-9612
▁Jurchens	-9613
▁assembly	-9614
▁coverage	-9615
▁cruisers	-9616
▁identify	-9617
▁lifetime	-9618
▁numbered	-9619
▁platinum	-9620
▁pregnant	-9621
▁reviewed	-9622
▁surprise	-9623
▁Hampshire	-9624
▁animation	-9625
▁champions	-9626
▁evolution	-9627
▁increases	-9628
▁measuring	-9629
▁occurring	-9630
▁ownership	-9631
▁permitted	-9632
▁relegated	-9633
▁seriously	-9634
▁virtually	-9635
▁Bradstreet	-9636
▁Rothschild	-9637
▁Wellington	-9638
▁consistent	-9639
▁reinforced	-9640
▁succession	-9641
▁successive	-9642
▁appropriate	-9643
▁grandfather	-9644
▁interpreted	-9645
▁observation	-9646
▁photographs	-9647
▁parliamentary	-9648
▁Transportation	-9649
▁administrative	-9650
CU	-9651
jo	-9652
ori	-9653
udo	-9654
uzz	-9655
▁83	-9656
▁DS	-9657
▁Eg	-9658
▁PC	-9659
acts	-9660
icul	-9661
inus	-9662
itia	-9663
olve	-9664
rous	-9665
stal	-9666
unch	-9667
▁230	-9668
▁Cas	-9669
▁Dot	-9670
▁IOC	-9671
▁Kau	-9672
▁MLB	-9673
▁Mix	-9674
▁Nat	-9675
▁Oak	-9676
▁Pot	-9677
▁Set	-9678
▁Son	-9679
▁Ult	-9680
▁ban	-9681
▁bon	-9682
▁gar	-9683
▁jet	-9684
▁mir	-9685
▁rid	-9686
enous	-9687
ormal	-9688
oster	-9689
worth	-9690
▁1849	-9691
▁Data	-9692
▁Dram	-9693
▁Etty	-9694
▁Halo	-9695
▁Ohio	-9696
▁Room	-9697
▁code	-9698
▁fame	-9699
▁feud	-9700
▁gang	-9701
▁loud	-9702
▁Grace	-9703
▁admin	-9704
▁autom	-9705
▁balls	-9706
▁grade	-9707
▁helps	-9708
▁hills	-9709
▁irreg	-9710
▁laugh	-9711
▁manip	-9712
▁rains	-9713
▁sings	-9714
▁sized	-9715
▁toler	-9716
▁tours	-9717
▁vault	-9718
▁votes	-9719
aration	-9720
legraph	-9721
▁Contem	-9722
▁Econom	-9723
▁Import	-9724
▁Joyful	-9725
▁Manuel	-9726
▁agency	-9727
▁armies	-9728
▁backed	-9729
▁cancel	-9730
▁doctor	-9731
▁excell	-9732
▁golden	-9733
▁guides	-9734
▁hamper	-9735
▁heroes	-9736
▁housed	-9737
▁naming	-9738
▁runway	-9739
▁seized	-9740
▁subsid	-9741
▁tasked	-9742
▁therap	-9743
▁varied	-9744
issioned	-9745
▁Coldrum	-9746
▁Looking	-9747
▁Studies	-9748
▁Tristan	-9749
▁balance	-9750
▁blocked	-9751
▁distrib	-9752
▁flooded	-9753
▁pounder	-9754
▁puzzles	-9755
▁revived	-9756
▁sitting	-9757
▁sixteen	-9758
▁Margaret	-9759
▁attitude	-9760
▁audition	-9761
▁bodyline	-9762
▁clothing	-9763
▁constitu	-9764
▁departed	-9765
▁explicit	-9766
▁habitats	-9767
▁pitching	-9768
▁resemble	-9769
▁sporting	-9770
▁suddenly	-9771
▁Rhodesian	-9772
▁believing	-9773
▁capturing	-9774
▁depiction	-9775
▁displaced	-9776
▁hospitals	-9777
▁infection	-9778
▁irregular	-9779
▁perceived	-9780
▁reactions	-9781
▁secretary	-9782
▁synagogue	-9783
▁Collection	-9784
▁authorized	-9785
▁commenting	-9786
▁continuous	-9787
▁downstream	-9788
▁engagement	-9789
▁kilometers	-9790
▁proportion	-9791
▁questioned	-9792
▁registered	-9793
▁understood	-9794
▁Palestinian	-9795
▁manuscripts	-9796
▁participate	-9797
▁promotional	-9798
▁Christianity	-9799
▁announcement	-9800
▁championships	-9801
▁entertainment	-9802
▁representatives	-9803
ikk	-9804
rep	-9805
▁AA	-9806
▁NM	-9807
▁Vi	-9808
agen	-9809
ashi	-9810
azer	-9811
eloc	-9812
▁174	-9813
▁240	-9814
▁Blu	-9815
▁Dor	-9816
▁Ext	-9817
▁Heb	-9818
▁Pan	-9819
▁Pur	-9820
▁Reb	-9821
▁Say	-9822
▁Sky	-9823
▁Tit	-9824
▁Wik	-9825
▁dod	-9826
▁ech	-9827
▁pap	-9828
▁sew	-9829
▁vir	-9830
cover	-9831
ricts	-9832
thren	-9833
▁Bapt	-9834
▁Bosn	-9835
▁Buck	-9836
▁Cant	-9837
▁Come	-9838
▁Deep	-9839
▁Dick	-9840
▁Iowa	-9841
▁List	-9842
▁Mort	-9843
▁NCAA	-9844
▁Pier	-9845
▁Prom	-9846
▁Ship	-9847
▁cler	-9848
▁epic	-9849
▁flew	-9850
▁herd	-9851
▁rays	-9852
▁salv	-9853
▁scar	-9854
▁stim	-9855
▁wolf	-9856
▁zomb	-9857
anches	-9858
barian	-9859
blazer	-9860
terior	-9861
▁Honor	-9862
▁McCar	-9863
▁Shell	-9864
▁Tokyo	-9865
▁Trond	-9866
▁Vegas	-9867
▁accum	-9868
▁banks	-9869
▁flies	-9870
▁noble	-9871
▁prize	-9872
▁queen	-9873
▁ruler	-9874
▁veter	-9875
anville	-9876
mingham	-9877
▁Creutz	-9878
▁Dennis	-9879
▁Ground	-9880
▁Hannah	-9881
▁Monkey	-9882
▁Slayer	-9883
▁Staley	-9884
▁edited	-9885
▁factor	-9886
▁metall	-9887
▁pistol	-9888
▁refere	-9889
▁roller	-9890
▁scorer	-9891
▁shrine	-9892
▁victim	-9893
▁Foreign	-9894
▁Gregory	-9895
▁Haitian	-9896
▁Morning	-9897
▁Skinner	-9898
▁Wrapped	-9899
▁affairs	-9900
▁fastest	-9901
▁kickoff	-9902
▁lacking	-9903
▁mystery	-9904
▁passion	-9905
▁replied	-9906
▁rescued	-9907
▁tickets	-9908
▁Campaign	-9909
▁Zanzibar	-9910
▁absorbed	-9911
▁aerodrom	-9912
▁coaching	-9913
▁mathemat	-9914
▁memories	-9915
▁teachers	-9916
▁vicinity	-9917
▁Palmyrene	-9918
▁Trondheim	-9919
▁Wrestling	-9920
▁component	-9921
▁comprised	-9922
▁dependent	-9923
▁distances	-9924
▁districts	-9925
▁strategic	-9926
▁Birmingham	-9927
▁Ecclestone	-9928
▁Hellblazer	-9929
▁Interstate	-9930
▁approaches	-9931
▁archbishop	-9932
▁candidates	-9933
▁industries	-9934
▁mainstream	-9935
▁touchdowns	-9936
▁undertaken	-9937
▁compilation	-9938
▁disturbance	-9939
▁arrangements	-9940
▁restrictions	-9941
fe	-9942
la	-9943
erm	-9944
ini	-9945
oof	-9946
pir	-9947
pse	-9948
wan	-9949
▁Iv	-9950
▁da	-9951
▁pp	-9952
alsa	-9953
book	-9954
ilda	-9955
imer	-9956
oded	-9957
oted	-9958
uras	-9959
zona	-9960
▁Aub	-9961
▁Cit	-9962
▁Dod	-9963
▁Ful	-9964
▁Gro	-9965
▁Lad	-9966
▁McM	-9967
▁Pam	-9968
▁Rul	-9969
▁fru	-9970
▁gat	-9971
▁gor	-9972
▁hur	-9973
▁mac	-9974
▁rig	-9975
agreb	-9976
arest	-9977
arris	-9978
emble	-9979
guard	-9980
iscus	-9981
oints	-9982
romet	-9983
▁1819	-9984
▁1901	-9985
▁1906	-9986
▁Ages	-9987
▁Hair	-9988
▁Isle	-9989
▁Lind	-9990
▁Mack	-9991
▁Moon	-9992
▁Nine	-9993
▁Pole	-9994
▁Shim	-9995
▁Thak	-9996
▁Tree	-9997
▁True	-9998
▁atop	-9999
▁brut	-10000
▁craf	-10001
▁dust	-10002
▁pole	-10003
▁punt	-10004
▁reag	-10005
▁wait	-10006
▁worn	-10007
achute	-10008
ficial	-10009
inness	-10010
luence	-10011
olence	-10012
urance	-10013
veland	-10014
wegian	-10015
▁Bruce	-10016
▁Exper	-10017
▁Hobbs	-10018
▁Liter	-10019
▁Marie	-10020
▁Singh	-10021
▁Tommy	-10022
▁admir	-10023
▁audio	-10024
▁crick	-10025
▁genes	-10026
▁juven	-10027
▁liner	-10028
▁medal	-10029
▁penet	-10030
▁poets	-10031
▁popul	-10032
▁redes	-10033
▁trend	-10034
▁tubes	-10035
▁vital	-10036
hemical	-10037
▁Beeton	-10038
▁Bright	-10039
▁Corbet	-10040
▁Hughes	-10041
▁Places	-10042
▁Quiney	-10043
▁Reagan	-10044
▁Return	-10045
▁Shadow	-10046
▁Zagreb	-10047
▁aboard	-10048
▁aerial	-10049
▁behalf	-10050
▁curved	-10051
▁extens	-10052
▁insurg	-10053
▁miners	-10054
▁myster	-10055
▁puppet	-10056
▁rubber	-10057
▁talent	-10058
▁trough	-10059
▁Arizona	-10060
▁Kennedy	-10061
▁Matthew	-10062
▁Senator	-10063
▁arguing	-10064
▁batsmen	-10065
▁bombing	-10066
▁consent	-10067
▁cutting	-10068
▁denomin	-10069
▁diamond	-10070
▁escaped	-10071
▁extinct	-10072
▁hearing	-10073
▁hitting	-10074
▁justice	-10075
▁locally	-10076
▁matters	-10077
▁sending	-10078
▁speaker	-10079
▁Highland	-10080
▁chapters	-10081
▁concepts	-10082
▁crickets	-10083
▁drinking	-10084
▁fourteen	-10085
▁fragment	-10086
▁membrane	-10087
▁opposing	-10088
▁pictures	-10089
▁praising	-10090
▁universe	-10091
▁Cambodian	-10092
▁Cleveland	-10093
▁Norwegian	-10094
▁Professor	-10095
▁brilliant	-10096
▁exclusive	-10097
▁extending	-10098
▁machinery	-10099
▁marketing	-10100
▁recurring	-10101
▁relatives	-10102
▁traveling	-10103
▁Federation	-10104
▁businesses	-10105
▁concession	-10106
▁exhibition	-10107
▁laboratory	-10108
▁agriculture	-10109
▁conjunction	-10110
▁extensively	-10111
▁maintenance	-10112
▁observatory	-10113
▁territorial	-10114
▁complimented	-10115
▁consistently	-10116
▁requirements	-10117
▁Archaeological	-10118
▁Meteorological	-10119
▁archaeologists	-10120
CW	-10121
PA	-10122
ng	-10123
zo	-10124
esh	-10125
rad	-10126
una	-10127
▁Af	-10128
▁IA	-10129
▁Ow	-10130
▁Ra	-10131
asha	-10132
cles	-10133
fers	-10134
gers	-10135
iger	-10136
inaw	-10137
olin	-10138
ribi	-10139
▁220	-10140
▁261	-10141
▁Alg	-10142
▁Fut	-10143
▁Lam	-10144
▁McN	-10145
▁Sox	-10146
▁lad	-10147
▁liv	-10148
▁squ	-10149
agoda	-10150
ensis	-10151
eries	-10152
ogram	-10153
orage	-10154
osity	-10155
overy	-10156
phrey	-10157
venge	-10158
ético	-10159
▁1878	-10160
▁1897	-10161
▁Cond	-10162
▁Gill	-10163
▁Hong	-10164
▁José	-10165
▁Kyle	-10166
▁Kyra	-10167
▁Liao	-10168
▁NASA	-10169
▁Serb	-10170
▁cosm	-10171
▁fulf	-10172
▁gene	-10173
▁happ	-10174
▁mand	-10175
▁zinc	-10176
aceous	-10177
ocaust	-10178
oustic	-10179
rieved	-10180
▁Dance	-10181
▁Doyle	-10182
▁Files	-10183
▁Globe	-10184
▁Guine	-10185
▁Joint	-10186
▁Local	-10187
▁Lucas	-10188
▁Marge	-10189
▁Opera	-10190
▁Pagan	-10191
▁Sixth	-10192
▁Stars	-10193
▁Works	-10194
▁abuse	-10195
▁alive	-10196
▁apply	-10197
▁brand	-10198
▁canon	-10199
▁deals	-10200
▁enorm	-10201
▁guide	-10202
▁horiz	-10203
▁motif	-10204
▁reper	-10205
▁rocks	-10206
▁sheep	-10207
▁simpl	-10208
▁spawn	-10209
▁stick	-10210
▁sugar	-10211
▁taste	-10212
▁tombs	-10213
▁users	-10214
▁usual	-10215
▁venue	-10216
underst	-10217
▁Brenda	-10218
▁Comedy	-10219
▁Europa	-10220
▁Flower	-10221
▁Johnny	-10222
▁Justin	-10223
▁Reines	-10224
▁Urania	-10225
▁Vulcan	-10226
▁beaten	-10227
▁couldn	-10228
▁decomm	-10229
▁device	-10230
▁exceed	-10231
▁faster	-10232
▁lacked	-10233
▁legacy	-10234
▁mature	-10235
▁myself	-10236
▁racing	-10237
▁recept	-10238
▁tested	-10239
▁trails	-10240
▁trains	-10241
iography	-10242
▁Finally	-10243
▁Kenneth	-10244
▁Plateau	-10245
▁Popular	-10246
▁advised	-10247
▁courses	-10248
▁explore	-10249
▁funeral	-10250
▁hostile	-10251
▁persist	-10252
▁pushing	-10253
▁pyramid	-10254
▁renewed	-10255
▁revenue	-10256
▁tracked	-10257
▁weekend	-10258
▁Atlético	-10259
▁Champion	-10260
▁Humphrey	-10261
▁consolid	-10262
▁presents	-10263
▁steadily	-10264
ographical	-10265
▁Carpenter	-10266
▁Community	-10267
▁Egyptians	-10268
▁Holocaust	-10269
▁allocated	-10270
▁commenced	-10271
▁conscious	-10272
▁neighbour	-10273
▁peninsula	-10274
▁predicted	-10275
▁twentieth	-10276
▁Hurricanes	-10277
▁Operations	-10278
▁Partington	-10279
▁households	-10280
▁indigenous	-10281
▁investment	-10282
▁propaganda	-10283
▁provincial	-10284
▁statements	-10285
▁Archaeology	-10286
▁centimetres	-10287
▁examination	-10288
▁exploration	-10289
▁governments	-10290
▁immigration	-10291
▁operational	-10292
▁partnership	-10293
▁transported	-10294
▁Contemporary	-10295
▁intellectual	-10296
▁presidential	-10297
CO	-10298
ES	-10299
ée	-10300
RNA	-10301
asm	-10302
fly	-10303
olm	-10304
olt	-10305
tym	-10306
▁Tu	-10307
alog	-10308
aple	-10309
arro	-10310
awny	-10311
irts	-10312
join	-10313
ogan	-10314
▁169	-10315
▁Bal	-10316
▁Box	-10317
▁Hay	-10318
▁Ten	-10319
▁ing	-10320
▁jaw	-10321
▁kid	-10322
▁wre	-10323
andra	-10324
ended	-10325
gends	-10326
ifeng	-10327
inted	-10328
itely	-10329
rinth	-10330
uters	-10331
uther	-10332
▁1800	-10333
▁Alfa	-10334
▁Boss	-10335
▁Cart	-10336
▁Cass	-10337
▁Mong	-10338
▁Prin	-10339
▁Thai	-10340
▁Vand	-10341
▁acre	-10342
▁amid	-10343
▁cook	-10344
▁load	-10345
▁mate	-10346
▁mood	-10347
▁obsc	-10348
▁pled	-10349
▁seas	-10350
▁snow	-10351
▁soci	-10352
▁styl	-10353
▁trio	-10354
▁ward	-10355
ernoot	-10356
mbrace	-10357
riarch	-10358
▁Brack	-10359
▁Cecil	-10360
▁Cloud	-10361
▁Crash	-10362
▁Guild	-10363
▁Lloyd	-10364
▁Mkhed	-10365
▁Movie	-10366
▁Offic	-10367
▁autob	-10368
▁lumin	-10369
▁mayor	-10370
▁plate	-10371
▁ports	-10372
▁talks	-10373
ighters	-10374
orrowed	-10375
▁Agency	-10376
▁Colomb	-10377
▁Graham	-10378
▁Hebrew	-10379
▁Hockey	-10380
▁Trophy	-10381
▁alphab	-10382
▁assert	-10383
▁autumn	-10384
▁breaks	-10385
▁canals	-10386
▁corpor	-10387
▁eating	-10388
▁funded	-10389
▁gender	-10390
▁integr	-10391
▁lumber	-10392
▁quoted	-10393
▁retain	-10394
▁reward	-10395
▁slopes	-10396
▁unrest	-10397
▁visits	-10398
▁voices	-10399
▁warned	-10400
abyrinth	-10401
▁Banksia	-10402
▁Baptist	-10403
▁Kaifeng	-10404
▁Navarro	-10405
▁Philipp	-10406
▁Pirates	-10407
▁Players	-10408
▁Russell	-10409
▁acceler	-10410
▁comfort	-10411
▁comprom	-10412
▁density	-10413
▁distant	-10414
▁enforce	-10415
▁ignored	-10416
▁insects	-10417
▁magical	-10418
▁marking	-10419
▁persons	-10420
▁placing	-10421
▁priests	-10422
▁repairs	-10423
▁singers	-10424
▁threats	-10425
▁volumes	-10426
mbracelet	-10427
▁Austrian	-10428
▁Cantrell	-10429
▁Computer	-10430
▁Franklin	-10431
▁Princess	-10432
▁Superman	-10433
▁Villaret	-10434
▁absolute	-10435
▁airports	-10436
▁argument	-10437
▁cemetery	-10438
▁flagship	-10439
▁minority	-10440
▁offshore	-10441
▁portions	-10442
▁studying	-10443
▁valuable	-10444
▁Africaine	-10445
▁Companies	-10446
▁Glanville	-10447
▁Lancaster	-10448
▁Mkhedruli	-10449
▁celebrate	-10450
▁condemned	-10451
▁exhausted	-10452
▁inaugural	-10453
▁proceeded	-10454
▁sexuality	-10455
▁sponsored	-10456
▁Vandernoot	-10457
▁calculated	-10458
▁complement	-10459
▁constantly	-10460
▁developers	-10461
▁homosexual	-10462
▁reportedly	-10463
▁storylines	-10464
▁Composition	-10465
▁approaching	-10466
▁challenging	-10467
▁connections	-10468
▁speculation	-10469
▁tributaries	-10470
▁conventional	-10471
▁Charmbracelet	-10472
▁concentration	-10473
VP	-10474
ht	-10475
rh	-10476
tz	-10477
bow	-10478
gud	-10479
hua	-10480
kef	-10481
nyi	-10482
▁Lt	-10483
▁hi	-10484
ambo	-10485
anya	-10486
apol	-10487
aria	-10488
atum	-10489
ilis	-10490
inai	-10491
nall	-10492
zhou	-10493
▁106	-10494
▁Arn	-10495
▁Cad	-10496
▁Ech	-10497
▁Ele	-10498
▁Eve	-10499
▁Imp	-10500
▁MVP	-10501
▁Raf	-10502
▁Sau	-10503
▁Sev	-10504
▁WNO	-10505
▁duo	-10506
▁nom	-10507
▁nut	-10508
▁pig	-10509
aduct	-10510
arged	-10511
ocent	-10512
olics	-10513
place	-10514
reens	-10515
rible	-10516
uedoc	-10517
▁1904	-10518
▁Circ	-10519
▁Conn	-10520
▁Farm	-10521
▁Giel	-10522
▁Lamb	-10523
▁Raid	-10524
▁Tide	-10525
▁Tong	-10526
▁beds	-10527
▁edit	-10528
▁heir	-10529
▁hind	-10530
▁lect	-10531
▁mini	-10532
▁pink	-10533
▁reun	-10534
▁torn	-10535
htwald	-10536
icians	-10537
igious	-10538
▁Adult	-10539
▁Bhair	-10540
▁Billy	-10541
▁Blues	-10542
▁Dress	-10543
▁Elgin	-10544
▁Fried	-10545
▁Isles	-10546
▁Larry	-10547
▁Ruler	-10548
▁Seven	-10549
▁Sinai	-10550
▁Small	-10551
▁Still	-10552
▁auton	-10553
▁buoys	-10554
▁corps	-10555
▁dozen	-10556
▁dying	-10557
▁flows	-10558
▁grows	-10559
▁humor	-10560
▁legit	-10561
▁loved	-10562
▁march	-10563
▁moist	-10564
▁monit	-10565
▁noise	-10566
▁overs	-10567
▁prest	-10568
▁resid	-10569
▁sanct	-10570
▁smoke	-10571
▁spore	-10572
▁stall	-10573
▁tasks	-10574
▁truly	-10575
▁trunk	-10576
▁urged	-10577
▁waves	-10578
claimed	-10579
icester	-10580
rapping	-10581
▁Auburn	-10582
▁Austro	-10583
▁Clocks	-10584
▁Ganges	-10585
▁Invest	-10586
▁Nelson	-10587
▁Rockef	-10588
▁Ronald	-10589
▁Sultan	-10590
▁Ulster	-10591
▁clergy	-10592
▁decide	-10593
▁finest	-10594
▁hamlet	-10595
▁hoping	-10596
▁indigo	-10597
▁manage	-10598
▁puzzle	-10599
▁rivals	-10600
▁salary	-10601
▁shield	-10602
▁timber	-10603
▁unless	-10604
▁wicket	-10605
▁Austria	-10606
▁Bristol	-10607
▁Freakum	-10608
▁Gielgud	-10609
▁Machine	-10610
▁Mission	-10611
▁circuit	-10612
▁colours	-10613
▁devoted	-10614
▁divorce	-10615
▁drivers	-10616
▁dynamic	-10617
▁imagery	-10618
▁knocked	-10619
▁lyrical	-10620
▁physics	-10621
▁roadway	-10622
▁screens	-10623
▁soldier	-10624
▁surpass	-10625
▁travels	-10626
▁undergo	-10627
▁venture	-10628
ibilities	-10629
▁Aviation	-10630
▁Loverboy	-10631
▁airfield	-10632
▁attorney	-10633
▁centered	-10634
▁deterior	-10635
▁emotions	-10636
▁gathered	-10637
▁graduate	-10638
▁passages	-10639
▁preserve	-10640
▁prospect	-10641
▁stronger	-10642
▁teammate	-10643
▁vertices	-10644
▁Berhtwald	-10645
▁Catholics	-10646
▁Commandos	-10647
▁Languedoc	-10648
▁Leicester	-10649
▁Qedarites	-10650
▁Yorkshire	-10651
▁belonging	-10652
▁fragments	-10653
▁memorable	-10654
▁replacing	-10655
▁shipments	-10656
▁stretched	-10657
▁diplomatic	-10658
▁intersects	-10659
▁jackrabbit	-10660
▁mysterious	-10661
▁occasional	-10662
▁progressed	-10663
▁reflecting	-10664
▁repeatedly	-10665
▁traditions	-10666
▁variations	-10667
▁Performance	-10668
▁Rockefeller	-10669
▁collections	-10670
▁consumption	-10671
▁cooperation	-10672
▁essentially	-10673
▁improvement	-10674
▁permanently	-10675
▁politicians	-10676
▁surrendered	-10677
▁experimental	-10678
▁similarities	-10679
EA	-10680
ii	-10681
alu	-10682
iga	-10683
isp	-10684
ker	-10685
mad	-10686
osy	-10687
ubs	-10688
▁04	-10689
▁BM	-10690
▁Ep	-10691
▁Uk	-10692
acko	-10693
akim	-10694
anka	-10695
aulk	-10696
enar	-10697
gans	-10698
irty	-10699
owed	-10700
vada	-10701
▁116	-10702
▁118	-10703
▁CPS	-10704
▁Cov	-10705
▁Hur	-10706
▁Jag	-10707
▁Kle	-10708
▁Loy	-10709
▁Vik	-10710
▁ath	-10711
▁avo	-10712
▁pin	-10713
▁sic	-10714
▁urg	-10715
ashes	-10716
azing	-10717
enson	-10718
pense	-10719
phant	-10720
raits	-10721
▁1857	-10722
▁Crab	-10723
▁Cret	-10724
▁Fast	-10725
▁Mond	-10726
▁Sout	-10727
▁Want	-10728
▁duet	-10729
▁garn	-10730
▁genu	-10731
▁grap	-10732
▁navy	-10733
▁rede	-10734
▁sibl	-10735
▁span	-10736
▁tape	-10737
▁tort	-10738
▁unex	-10739
lights	-10740
▁Devin	-10741
▁Faulk	-10742
▁Gacko	-10743
▁Jimmy	-10744
▁Kings	-10745
▁Leban	-10746
▁Loose	-10747
▁Metro	-10748
▁Remix	-10749
▁Rover	-10750
▁Scots	-10751
▁Trail	-10752
▁adequ	-10753
▁angle	-10754
▁bombs	-10755
▁brood	-10756
▁cards	-10757
▁demon	-10758
▁draws	-10759
▁essay	-10760
▁funny	-10761
▁grain	-10762
▁knock	-10763
▁links	-10764
▁magic	-10765
▁naked	-10766
▁posts	-10767
▁price	-10768
▁sharp	-10769
▁stanz	-10770
▁tools	-10771
amation	-10772
iblical	-10773
ictions	-10774
igadier	-10775
issions	-10776
mediate	-10777
raction	-10778
▁Direct	-10779
▁Nevada	-10780
▁Studio	-10781
▁amphib	-10782
▁ascend	-10783
▁ceased	-10784
▁compan	-10785
▁endors	-10786
▁horror	-10787
▁intend	-10788
▁kicked	-10789
▁limits	-10790
▁opined	-10791
▁planes	-10792
▁precip	-10793
▁sacked	-10794
▁scenar	-10795
▁tonnes	-10796
▁verses	-10797
▁Actress	-10798
▁Antonio	-10799
▁Bernard	-10800
▁Bradman	-10801
▁Maurice	-10802
▁Weather	-10803
▁athlete	-10804
▁avoided	-10805
▁barrier	-10806
▁dealing	-10807
▁disrupt	-10808
▁dressed	-10809
▁guarant	-10810
▁minimal	-10811
▁planets	-10812
▁shallow	-10813
▁shifted	-10814
▁tunnels	-10815
▁Cultural	-10816
▁Faulkner	-10817
▁McCarthy	-10818
▁Montreal	-10819
▁Railroad	-10820
▁Robinson	-10821
▁aviation	-10822
▁devotion	-10823
▁drainage	-10824
▁enormous	-10825
▁familiar	-10826
▁garnered	-10827
▁imperial	-10828
▁involves	-10829
▁isotopes	-10830
▁junction	-10831
▁landmark	-10832
▁narrator	-10833
▁opinions	-10834
▁publicly	-10835
▁screened	-10836
▁siblings	-10837
▁survival	-10838
▁symptoms	-10839
▁Barbarian	-10840
▁Formation	-10841
▁Neolithic	-10842
▁Shimomura	-10843
▁Telegraph	-10844
▁boyfriend	-10845
▁confusion	-10846
▁directing	-10847
▁evacuated	-10848
▁mythology	-10849
▁perfectly	-10850
▁seemingly	-10851
▁stability	-10852
▁substance	-10853
▁violation	-10854
▁Cretaceous	-10855
▁Millennium	-10856
▁Yugoslavia	-10857
▁acceptable	-10858
▁ambassador	-10859
▁battleship	-10860
▁dedication	-10861
▁employment	-10862
▁processing	-10863
▁prohibited	-10864
▁relegation	-10865
▁remarkable	-10866
▁songwriter	-10867
▁accommodate	-10868
▁battlefield	-10869
▁bombardment	-10870
▁complicated	-10871
▁destination	-10872
▁disappeared	-10873
▁nightingale	-10874
▁rectangular	-10875
▁sufficiently	-10876
▁manufacturing	-10877
▁predominantly	-10878
CE	-10879
OM	-10880
box	-10881
cut	-10882
har	-10883
rix	-10884
tic	-10885
ygh	-10886
zed	-10887
▁Ak	-10888
▁CG	-10889
▁Da	-10890
▁Dw	-10891
▁EP	-10892
▁mg	-10893
adys	-10894
athy	-10895
iors	-10896
saku	-10897
urre	-10898
▁154	-10899
▁172	-10900
▁ATP	-10901
▁FIT	-10902
▁Hip	-10903
▁Hit	-10904
▁Imb	-10905
▁Rag	-10906
▁Spe	-10907
▁Tow	-10908
▁Wed	-10909
▁alg	-10910
▁ion	-10911
▁nep	-10912
aiman	-10913
aping	-10914
illas	-10915
inate	-10916
olves	-10917
onsin	-10918
▁1848	-10919
▁1854	-10920
▁1856	-10921
▁Appe	-10922
▁Assy	-10923
▁Chan	-10924
▁Curt	-10925
▁Earn	-10926
▁Edge	-10927
▁Ford	-10928
▁Full	-10929
▁Glad	-10930
▁Mile	-10931
▁Mole	-10932
▁Pete	-10933
▁Uygh	-10934
▁Vist	-10935
▁Wisc	-10936
▁Xbox	-10937
▁Xook	-10938
▁Yang	-10939
▁bull	-10940
▁cash	-10941
▁cuts	-10942
▁item	-10943
▁plag	-10944
▁sick	-10945
▁soph	-10946
▁swit	-10947
▁warn	-10948
anther	-10949
▁Begin	-10950
▁Gabri	-10951
▁Medal	-10952
▁Month	-10953
▁fires	-10954
▁lying	-10955
▁morph	-10956
▁saint	-10957
▁taxon	-10958
▁walks	-10959
▁weigh	-10960
▁wrest	-10961
achment	-10962
▁Combat	-10963
▁Commer	-10964
▁Dwight	-10965
▁Garden	-10966
▁Imbudo	-10967
▁Julian	-10968
▁Malays	-10969
▁Napole	-10970
▁Senate	-10971
▁afford	-10972
▁bypass	-10973
▁census	-10974
▁colors	-10975
▁enroll	-10976
▁expand	-10977
▁halted	-10978
▁learns	-10979
▁licens	-10980
▁linear	-10981
▁movies	-10982
▁rejoin	-10983
▁remind	-10984
▁retail	-10985
▁rushed	-10986
▁sacrif	-10987
▁subord	-10988
▁varies	-10989
▁vulner	-10990
▁Defence	-10991
▁Destroy	-10992
▁Earnest	-10993
▁Filming	-10994
▁Liberal	-10995
▁Pfaster	-10996
▁cabinet	-10997
▁caliber	-10998
▁cavalry	-10999
▁continu	-11000
▁experts	-11001
▁extends	-11002
▁grasses	-11003
▁imposed	-11004
▁options	-11005
▁spotted	-11006
▁supreme	-11007
▁suspect	-11008
▁therapy	-11009
▁warfare	-11010
oceratops	-11011
▁Aircraft	-11012
▁Brigades	-11013
▁Montfort	-11014
▁Nicholas	-11015
▁Official	-11016
▁Pakistan	-11017
▁acoustic	-11018
▁advances	-11019
▁cyclones	-11020
▁defender	-11021
▁demanded	-11022
▁governed	-11023
▁heritage	-11024
▁hypothes	-11025
▁inducted	-11026
▁petition	-11027
▁realised	-11028
▁relieved	-11029
▁stingray	-11030
▁variable	-11031
▁Beginning	-11032
▁Gladstone	-11033
▁Represent	-11034
▁Wisconsin	-11035
▁alternate	-11036
▁computers	-11037
▁disbanded	-11038
▁landscape	-11039
▁limestone	-11040
▁microscop	-11041
▁offerings	-11042
▁populated	-11043
▁presbyter	-11044
▁releasing	-11045
▁sensitive	-11046
▁surprised	-11047
▁universal	-11048
▁weakening	-11049
▁Technology	-11050
▁Witchcraft	-11051
▁challenges	-11052
▁comprehens	-11053
▁electrical	-11054
▁helicopter	-11055
▁immigrants	-11056
▁competitive	-11057
▁highlighted	-11058
▁Constitution	-11059
▁collaborated	-11060
▁deliberately	-11061
▁improvements	-11062
▁participants	-11063
▁decommissioned	-11064
pa	-11065
aft	-11066
ags	-11067
gom	-11068
▁Ah	-11069
▁Fa	-11070
▁Gy	-11071
▁Mh	-11072
▁RI	-11073
▁yd	-11074
atra	-11075
bits	-11076
dale	-11077
hire	-11078
iper	-11079
itic	-11080
lroy	-11081
ouli	-11082
uskh	-11083
▁115	-11084
▁737	-11085
▁Aut	-11086
▁Ins	-11087
▁Kam	-11088
▁Rav	-11089
▁SMS	-11090
▁Saf	-11091
▁Tan	-11092
▁ben	-11093
▁gri	-11094
▁isn	-11095
▁lie	-11096
▁nat	-11097
▁ped	-11098
▁pse	-11099
▁rit	-11100
▁tal	-11101
agers	-11102
ework	-11103
ifest	-11104
iller	-11105
itter	-11106
lando	-11107
ocese	-11108
ricus	-11109
rooms	-11110
▁1832	-11111
▁1851	-11112
▁1881	-11113
▁1894	-11114
▁1898	-11115
▁Belt	-11116
▁Brun	-11117
▁Dead	-11118
▁Ferd	-11119
▁Hein	-11120
▁Keys	-11121
▁Kick	-11122
▁Moro	-11123
▁Note	-11124
▁PAVN	-11125
▁Poet	-11126
▁Site	-11127
▁Surv	-11128
▁Tell	-11129
▁Todd	-11130
▁boil	-11131
▁deer	-11132
▁fier	-11133
▁icon	-11134
▁knee	-11135
▁milk	-11136
▁pron	-11137
▁push	-11138
▁quit	-11139
▁rape	-11140
▁rush	-11141
amouli	-11142
anelli	-11143
ashire	-11144
escope	-11145
gomery	-11146
ounced	-11147
▁Apart	-11148
▁Derby	-11149
▁Katia	-11150
▁Laure	-11151
▁Level	-11152
▁Nuskh	-11153
▁Paran	-11154
▁Rhode	-11155
▁Scout	-11156
▁Sidon	-11157
▁Stand	-11158
▁Taxon	-11159
▁Terry	-11160
▁Total	-11161
▁Traff	-11162
▁Worth	-11163
▁aside	-11164
▁casem	-11165
▁dealt	-11166
▁disgu	-11167
▁guerr	-11168
▁gusts	-11169
▁nickn	-11170
▁quiet	-11171
▁shock	-11172
▁sweet	-11173
▁tawny	-11174
▁tempo	-11175
athetic	-11176
ometric	-11177
ulating	-11178
▁Action	-11179
▁Bergen	-11180
▁Darwin	-11181
▁Energy	-11182
▁Gabbar	-11183
▁Guinea	-11184
▁Harris	-11185
▁Humpty	-11186
▁Mahesh	-11187
▁Mhalsa	-11188
▁Puerto	-11189
▁Stakes	-11190
▁Vargas	-11191
▁antiqu	-11192
▁cattle	-11193
▁convey	-11194
▁crowds	-11195
▁extant	-11196
▁floods	-11197
▁intact	-11198
▁labour	-11199
▁lawyer	-11200
▁liquid	-11201
▁metric	-11202
▁paying	-11203
▁reconc	-11204
▁triang	-11205
aliation	-11206
etheless	-11207
▁Blackie	-11208
▁McElroy	-11209
▁Members	-11210
▁Nazaire	-11211
▁Orlando	-11212
▁Reviews	-11213
▁Trinity	-11214
▁Wallace	-11215
▁arrives	-11216
▁casting	-11217
▁dancing	-11218
▁descent	-11219
▁diverse	-11220
▁divines	-11221
▁enabled	-11222
▁flowers	-11223
▁heading	-11224
▁invaded	-11225
▁pressed	-11226
▁promise	-11227
▁rituals	-11228
▁Colonies	-11229
▁Greatest	-11230
▁Guinness	-11231
▁Nuskhuri	-11232
▁Personal	-11233
▁Taxonomy	-11234
▁competed	-11235
▁connects	-11236
▁estimate	-11237
▁examined	-11238
▁guidance	-11239
▁hygromet	-11240
▁mentions	-11241
▁playable	-11242
▁thirteen	-11243
▁Bracknell	-11244
▁Brazilian	-11245
▁Katherine	-11246
▁Rajamouli	-11247
▁Retrieved	-11248
▁Strapping	-11249
▁addressed	-11250
▁aftermath	-11251
▁apartment	-11252
▁attending	-11253
▁communist	-11254
▁declaring	-11255
▁exhibited	-11256
▁portrayal	-11257
▁preceding	-11258
▁rebellion	-11259
▁recognize	-11260
▁Ganganelli	-11261
▁Lancashire	-11262
▁Montgomery	-11263
▁adventures	-11264
▁altarpiece	-11265
▁categories	-11266
▁commentary	-11267
▁comprising	-11268
▁concerning	-11269
▁perception	-11270
▁qualifying	-11271
▁reservoirs	-11272
▁speculated	-11273
▁volunteers	-11274
▁Paranthodon	-11275
▁dissipating	-11276
▁outstanding	-11277
▁subtropical	-11278
▁transformed	-11279
▁overwhelming	-11280
▁recreational	-11281
▁hygrometricus	-11282
▁interpretation	-11283
▁internationally	-11284
Ar	-11285
ED	-11286
ji	-11287
éd	-11288
gro	-11289
hum	-11290
lyn	-11291
oma	-11292
pat	-11293
▁CN	-11294
▁DE	-11295
adic	-11296
aels	-11297
aman	-11298
ayne	-11299
igon	-11300
ipel	-11301
ivan	-11302
ovil	-11303
tene	-11304
▁111	-11305
▁Bou	-11306
▁Fat	-11307
▁Liz	-11308
▁Lyn	-11309
▁Mes	-11310
▁Moh	-11311
▁NEA	-11312
▁SNL	-11313
▁Yam	-11314
▁abn	-11315
▁cam	-11316
▁dad	-11317
▁gra	-11318
▁rot	-11319
andom	-11320
arius	-11321
eping	-11322
found	-11323
irect	-11324
ource	-11325
taker	-11326
usade	-11327
▁1200	-11328
▁1865	-11329
▁1882	-11330
▁1891	-11331
▁Beth	-11332
▁Boot	-11333
▁Chop	-11334
▁Coll	-11335
▁Crim	-11336
▁Days	-11337
▁Finn	-11338
▁Forb	-11339
▁Sull	-11340
▁Well	-11341
▁ages	-11342
▁bold	-11343
▁clar	-11344
▁coat	-11345
▁debt	-11346
▁fart	-11347
▁intr	-11348
▁loop	-11349
▁mild	-11350
▁nose	-11351
▁pulp	-11352
apolis	-11353
atters	-11354
cially	-11355
reated	-11356
season	-11357
unning	-11358
ylogen	-11359
▁Analy	-11360
▁Based	-11361
▁Cobra	-11362
▁Fifth	-11363
▁Gross	-11364
▁Llosa	-11365
▁Loren	-11366
▁Quinn	-11367
▁Scand	-11368
▁Sword	-11369
▁Symph	-11370
▁Vishn	-11371
▁angry	-11372
▁arose	-11373
▁cakes	-11374
▁chanc	-11375
▁femin	-11376
▁hosts	-11377
▁loyal	-11378
▁paths	-11379
▁pione	-11380
▁ratio	-11381
▁shall	-11382
▁skill	-11383
▁sword	-11384
▁veloc	-11385
▁wheel	-11386
▁wreck	-11387
▁zones	-11388
ipelago	-11389
veloped	-11390
▁Blacks	-11391
▁Fastra	-11392
▁Gibson	-11393
▁Mariah	-11394
▁Parker	-11395
▁Rafael	-11396
▁Stewie	-11397
▁Yeovil	-11398
▁brings	-11399
▁coffee	-11400
▁deGrom	-11401
▁desper	-11402
▁dislik	-11403
▁entert	-11404
▁genres	-11405
▁gentle	-11406
▁hockey	-11407
▁incurs	-11408
▁layers	-11409
▁lights	-11410
▁mounts	-11411
▁occupy	-11412
▁radius	-11413
▁statue	-11414
▁teleph	-11415
▁thesis	-11416
▁wished	-11417
▁wonder	-11418
rosaurus	-11419
urrently	-11420
▁Battery	-11421
▁Brother	-11422
▁Cadmium	-11423
▁Denmark	-11424
▁Jenkins	-11425
▁McLaren	-11426
▁Montene	-11427
▁Raymond	-11428
▁batting	-11429
▁coaster	-11430
▁confirm	-11431
▁discont	-11432
▁farming	-11433
▁graphic	-11434
▁honours	-11435
▁involve	-11436
▁jumping	-11437
▁leagues	-11438
▁marched	-11439
▁organic	-11440
▁reactor	-11441
▁reverse	-11442
▁scripts	-11443
▁secular	-11444
▁wanting	-11445
▁Algernon	-11446
▁Medieval	-11447
▁Sullivan	-11448
▁asserted	-11449
▁circular	-11450
▁commerce	-11451
▁decrease	-11452
▁drawings	-11453
▁elevated	-11454
▁eleventh	-11455
▁ensemble	-11456
▁hampered	-11457
▁honorary	-11458
▁indirect	-11459
▁insisted	-11460
▁ordinary	-11461
▁reversed	-11462
▁thoughts	-11463
▁tourists	-11464
▁transits	-11465
▁velocity	-11466
▁weakness	-11467
▁Chronicle	-11468
▁Terrorist	-11469
▁Therefore	-11470
▁alignment	-11471
▁dinosaurs	-11472
▁eliminate	-11473
▁inhabited	-11474
▁ministers	-11475
▁orchestra	-11476
▁platforms	-11477
▁principle	-11478
▁realistic	-11479
▁responses	-11480
▁teachings	-11481
▁torpedoes	-11482
▁witnesses	-11483
▁destroying	-11484
▁impressive	-11485
▁interviews	-11486
▁invitation	-11487
▁positioned	-11488
▁protesters	-11489
▁semifinals	-11490
▁situations	-11491
▁travelling	-11492
▁unexpected	-11493
▁astronomers	-11494
▁educational	-11495
▁interviewed	-11496
▁scholarship	-11497
▁accomplished	-11498
▁acknowledged	-11499
▁commercially	-11500
▁conservative	-11501
▁supernatural	-11502
▁revolutionary	-11503
▁transcription	-11504
▁advertisements	-11505
▁battlecruisers	-11506
adh	-11507
ahn	-11508
hin	-11509
oto	-11510
zes	-11511
▁Ni	-11512
▁Ru	-11513
▁cu	-11514
asco	-11515
aude	-11516
emen	-11517
idel	-11518
iffs	-11519
mede	-11520
osph	-11521
pack	-11522
rino	-11523
sole	-11524
thic	-11525
▁151	-11526
▁Fez	-11527
▁Hem	-11528
▁Hom	-11529
▁Ord	-11530
▁Syn	-11531
▁Tai	-11532
▁cir	-11533
▁fil	-11534
alypt	-11535
brush	-11536
erves	-11537
illes	-11538
inisc	-11539
isons	-11540
odium	-11541
riors	-11542
ylost	-11543
▁1862	-11544
▁1896	-11545
▁Dawn	-11546
▁Exec	-11547
▁Goat	-11548
▁Hosp	-11549
▁Karl	-11550
▁Lear	-11551
▁Mail	-11552
▁PopM	-11553
▁Sean	-11554
▁Spir	-11555
▁beak	-11556
▁cats	-11557
▁cens	-11558
▁dawn	-11559
▁forg	-11560
▁judo	-11561
▁logs	-11562
▁mast	-11563
▁murd	-11564
▁musc	-11565
▁puma	-11566
▁tent	-11567
▁terr	-11568
▁unst	-11569
▁vint	-11570
bourne	-11571
castle	-11572
entine	-11573
igible	-11574
ipedia	-11575
▁Being	-11576
▁Bobby	-11577
▁Chang	-11578
▁Glass	-11579
▁Jamie	-11580
▁Janet	-11581
▁Pitts	-11582
▁Staff	-11583
▁Verst	-11584
▁accus	-11585
▁aided	-11586
▁bills	-11587
▁bonus	-11588
▁cease	-11589
▁conce	-11590
▁drugs	-11591
▁eagle	-11592
▁elite	-11593
▁fears	-11594
▁filed	-11595
▁fungi	-11596
▁ghost	-11597
▁gover	-11598
▁lacks	-11599
▁opens	-11600
▁radar	-11601
▁sixty	-11602
▁slave	-11603
▁stere	-11604
▁twins	-11605
istical	-11606
ivation	-11607
onation	-11608
ruption	-11609
▁Annals	-11610
▁Archer	-11611
▁Artist	-11612
▁Attack	-11613
▁Behind	-11614
▁Bruins	-11615
▁Davies	-11616
▁Durham	-11617
▁Exeter	-11618
▁Father	-11619
▁Indies	-11620
▁Inside	-11621
▁Johann	-11622
▁Voyage	-11623
▁agrees	-11624
▁blamed	-11625
▁coined	-11626
▁deeply	-11627
▁deputy	-11628
▁fairly	-11629
▁feared	-11630
▁gospel	-11631
▁memoir	-11632
▁mutual	-11633
▁nephew	-11634
▁phosph	-11635
▁skelet	-11636
▁spokes	-11637
▁stabil	-11638
▁staged	-11639
▁theore	-11640
▁thrown	-11641
iniscent	-11642
ylostere	-11643
▁Edition	-11644
▁Freedom	-11645
▁Maryang	-11646
▁Medical	-11647
▁Newport	-11648
▁Private	-11649
▁Shaolin	-11650
▁antagon	-11651
▁binding	-11652
▁bombers	-11653
▁borders	-11654
▁cameras	-11655
▁centres	-11656
▁conform	-11657
▁console	-11658
▁conspir	-11659
▁debated	-11660
▁desired	-11661
▁emotion	-11662
▁enthusi	-11663
▁exhibit	-11664
▁focuses	-11665
▁gallery	-11666
▁lasting	-11667
▁markets	-11668
▁painter	-11669
▁patrols	-11670
▁plumage	-11671
▁radical	-11672
▁sailors	-11673
▁staying	-11674
▁storage	-11675
▁studios	-11676
▁winners	-11677
umberland	-11678
▁Magdalen	-11679
▁McNichol	-11680
▁Thompson	-11681
▁Wolfpack	-11682
▁belonged	-11683
▁borrowed	-11684
▁confused	-11685
▁costumes	-11686
▁enlisted	-11687
▁entirety	-11688
▁exciting	-11689
▁exterior	-11690
▁founding	-11691
▁frigates	-11692
▁merchant	-11693
▁messages	-11694
▁printing	-11695
▁spelling	-11696
▁targeted	-11697
▁unstable	-11698
▁vocalist	-11699
▁whatever	-11700
▁Aftermath	-11701
▁Artillery	-11702
▁Athletics	-11703
▁Executive	-11704
▁Wikipedia	-11705
▁advocated	-11706
▁affecting	-11707
▁aggregate	-11708
▁athletics	-11709
▁awareness	-11710
▁campaigns	-11711
▁conceived	-11712
▁developer	-11713
▁discovers	-11714
▁efficient	-11715
▁frequency	-11716
▁gathering	-11717
▁governing	-11718
▁graduated	-11719
▁identical	-11720
▁persisted	-11721
▁proposals	-11722
▁recruited	-11723
▁rendition	-11724
▁Amylostere	-11725
▁Verstappen	-11726
▁counteratt	-11727
▁dispatched	-11728
▁emphasized	-11729
▁friendship	-11730
▁submarines	-11731
▁Campbeltown	-11732
▁achievement	-11733
▁declaration	-11734
▁progression	-11735
▁reminiscent	-11736
▁restaurants	-11737
▁administered	-11738
▁applications	-11739
▁commentators	-11740
▁developments	-11741
▁comprehensive	-11742
▁corresponding	-11743
▁participation	-11744
▁Administration	-11745
▁Northumberland	-11746
bu	-11747
ss	-11748
ti	-11749
zu	-11750
ais	-11751
aja	-11752
bre	-11753
coh	-11754
pet	-11755
phy	-11756
uct	-11757
xim	-11758
▁Ba	-11759
▁Ot	-11760
ESCO	-11761
boro	-11762
case	-11763
chen	-11764
even	-11765
geon	-11766
iban	-11767
othy	-11768
ovac	-11769
pike	-11770
rist	-11771
tzow	-11772
unta	-11773
▁108	-11774
▁167	-11775
▁ECU	-11776
▁Eug	-11777
▁Gao	-11778
▁Gen	-11779
▁Had	-11780
▁Kub	-11781
▁Pok	-11782
▁RNA	-11783
▁Ren	-11784
▁Sri	-11785
▁Tzu	-11786
▁jur	-11787
▁lig	-11788
▁unw	-11789
adesh	-11790
aland	-11791
asted	-11792
ested	-11793
etown	-11794
icken	-11795
ighed	-11796
izong	-11797
olver	-11798
oping	-11799
point	-11800
ratch	-11801
resco	-11802
tical	-11803
▁1874	-11804
▁1893	-11805
▁1899	-11806
▁Adri	-11807
▁Away	-11808
▁Boat	-11809
▁Clay	-11810
▁Fear	-11811
▁Ferr	-11812
▁Guth	-11813
▁IAAF	-11814
▁Joan	-11815
▁Lein	-11816
▁MDOT	-11817
▁Mall	-11818
▁Mint	-11819
▁Pink	-11820
▁Shaw	-11821
▁Tuck	-11822
▁Wave	-11823
▁boss	-11824
▁bron	-11825
▁butt	-11826
▁forb	-11827
▁gram	-11828
▁nice	-11829
▁oral	-11830
▁outd	-11831
▁pose	-11832
▁pray	-11833
▁rout	-11834
alling	-11835
herent	-11836
issart	-11837
oplasm	-11838
usader	-11839
ximity	-11840
▁Baron	-11841
▁Bloom	-11842
▁Copia	-11843
▁Ellis	-11844
▁Hakim	-11845
▁Style	-11846
▁Syria	-11847
▁Wells	-11848
▁alcoh	-11849
▁assum	-11850
▁bread	-11851
▁cable	-11852
▁decis	-11853
▁doors	-11854
▁enact	-11855
▁exile	-11856
▁flown	-11857
▁foxes	-11858
▁harsh	-11859
▁holes	-11860
▁integ	-11861
▁inver	-11862
▁knows	-11863
▁oribi	-11864
▁oxide	-11865
▁ruins	-11866
▁scope	-11867
ounters	-11868
▁Aldean	-11869
▁Career	-11870
▁Carlos	-11871
▁Curtis	-11872
▁Dumpty	-11873
▁Hairan	-11874
▁Ingram	-11875
▁Joshua	-11876
▁Moritz	-11877
▁Murphy	-11878
▁Others	-11879
▁Puppet	-11880
▁Rowley	-11881
▁Savage	-11882
▁UNESCO	-11883
▁affair	-11884
▁answer	-11885
▁blacks	-11886
▁breeds	-11887
▁canons	-11888
▁conven	-11889
▁corrid	-11890
▁debris	-11891
▁fertil	-11892
▁handle	-11893
▁incred	-11894
▁mining	-11895
▁mixing	-11896
▁poetic	-11897
▁rifles	-11898
▁saving	-11899
▁scores	-11900
▁summar	-11901
▁tennis	-11902
metrical	-11903
▁Classic	-11904
▁Cruiser	-11905
▁Gaozong	-11906
▁Greater	-11907
▁Guthrie	-11908
▁Lithuan	-11909
▁Marshal	-11910
▁Soviets	-11911
▁Vistara	-11912
▁absolut	-11913
▁chances	-11914
▁conclus	-11915
▁exhaust	-11916
▁fantasy	-11917
▁labeled	-11918
▁lessons	-11919
▁nearest	-11920
▁refuses	-11921
▁romance	-11922
▁rounded	-11923
▁samples	-11924
▁shelter	-11925
▁statues	-11926
▁symbols	-11927
▁totally	-11928
▁Bhairava	-11929
▁Brethren	-11930
▁Cemetery	-11931
▁Leinster	-11932
▁Napoleon	-11933
▁Security	-11934
▁abundant	-11935
▁alliance	-11936
▁armoured	-11937
▁deposits	-11938
▁disabled	-11939
▁eighteen	-11940
▁elephant	-11941
▁exercise	-11942
▁explored	-11943
▁extraord	-11944
▁focusing	-11945
▁handling	-11946
▁humanity	-11947
▁mistaken	-11948
▁nickname	-11949
▁overcome	-11950
▁playoffs	-11951
▁rendered	-11952
▁reporter	-11953
▁sexually	-11954
▁turbines	-11955
▁ultimate	-11956
▁woodland	-11957
▁Chanology	-11958
▁Commodore	-11959
▁Engineers	-11960
▁Northwest	-11961
▁Parachute	-11962
▁Regiments	-11963
▁Universal	-11964
▁abundance	-11965
▁arguments	-11966
▁coastline	-11967
▁contracts	-11968
▁estimates	-11969
▁explosive	-11970
▁framework	-11971
▁guitarist	-11972
▁listeners	-11973
▁migration	-11974
▁naturally	-11975
▁obstacles	-11976
▁prompting	-11977
▁proximity	-11978
▁sanctuary	-11979
▁subjected	-11980
▁synthesis	-11981
▁witnessed	-11982
▁Electronic	-11983
▁Importance	-11984
▁Underneath	-11985
▁acceptance	-11986
▁attendance	-11987
▁confidence	-11988
▁decoration	-11989
▁encounters	-11990
▁explaining	-11991
▁incomplete	-11992
▁introduces	-11993
▁suggestion	-11994
▁expeditions	-11995
▁implemented	-11996
▁intelligent	-11997
▁overwhelmed	-11998
▁descriptions	-11999
▁instrumental	-12000
▁intervention	-12001
▁demonstration	-12002
NZ	-12003
dv	-12004
aze	-12005
jan	-12006
kes	-12007
ocy	-12008
opp	-12009
oso	-12010
rez	-12011
say	-12012
sts	-12013
uki	-12014
▁1.	-12015
▁Ax	-12016
▁NF	-12017
▁kW	-12018
NZAC	-12019
alph	-12020
cena	-12021
fire	-12022
grid	-12023
ilyn	-12024
itsu	-12025
obee	-12026
oric	-12027
oves	-12028
ught	-12029
wall	-12030
▁102	-12031
▁129	-12032
▁156	-12033
▁Any	-12034
▁Bes	-12035
▁Hub	-12036
▁ITV	-12037
▁Leo	-12038
▁NOK	-12039
▁Oke	-12040
▁Pic	-12041
▁SEC	-12042
▁Was	-12043
▁bin	-12044
▁cyl	-12045
▁fed	-12046
▁jam	-12047
▁nas	-12048
▁nic	-12049
▁sin	-12050
▁tel	-12051
aters	-12052
inand	-12053
inich	-12054
leans	-12055
lings	-12056
uania	-12057
umble	-12058
▁1859	-12059
▁1892	-12060
▁Gene	-12061
▁Half	-12062
▁Have	-12063
▁Holl	-12064
▁Indu	-12065
▁Josh	-12066
▁Liam	-12067
▁Loch	-12068
▁Mets	-12069
▁Pesh	-12070
▁Stat	-12071
▁Talk	-12072
▁Than	-12073
▁Unit	-12074
▁echo	-12075
▁herb	-12076
▁mane	-12077
▁maps	-12078
▁merc	-12079
▁mere	-12080
▁pill	-12081
ailand	-12082
arting	-12083
ealous	-12084
itudes	-12085
licted	-12086
racted	-12087
ulates	-12088
▁ANZAC	-12089
▁Exped	-12090
▁Flair	-12091
▁Grant	-12092
▁Helen	-12093
▁Jerry	-12094
▁Julio	-12095
▁Muham	-12096
▁Peron	-12097
▁Ralph	-12098
▁Robyn	-12099
▁Saxon	-12100
▁Twins	-12101
▁Urban	-12102
▁besie	-12103
▁chord	-12104
▁curve	-12105
▁error	-12106
▁joins	-12107
▁kinds	-12108
▁repet	-12109
▁shaft	-12110
▁spell	-12111
▁stalk	-12112
▁tales	-12113
▁trium	-12114
▁troop	-12115
▁uncle	-12116
▁uncom	-12117
changed	-12118
echobee	-12119
isphere	-12120
umbered	-12121
▁Cadets	-12122
▁Cruise	-12123
▁Doctor	-12124
▁Flying	-12125
▁Ingrid	-12126
▁Judith	-12127
▁Kaiman	-12128
▁Market	-12129
▁Monica	-12130
▁Palmer	-12131
▁Rapids	-12132
▁Rebbie	-12133
▁Saigon	-12134
▁Stones	-12135
▁Turkey	-12136
▁advent	-12137
▁barely	-12138
▁crafts	-12139
▁dining	-12140
▁garden	-12141
▁insult	-12142
▁invent	-12143
▁lesser	-12144
▁lifted	-12145
▁mammal	-12146
▁orange	-12147
▁relied	-12148
▁remake	-12149
▁seated	-12150
▁slaves	-12151
▁spoken	-12152
▁stress	-12153
▁suburb	-12154
acements	-12155
arnation	-12156
isations	-12157
ressions	-12158
tymology	-12159
▁Carroll	-12160
▁Crimson	-12161
▁Diamond	-12162
▁Domnall	-12163
▁Liberty	-12164
▁Lorenzo	-12165
▁Marilyn	-12166
▁Notable	-12167
▁Officer	-12168
▁Orleans	-12169
▁Outside	-12170
▁Peshkin	-12171
▁Warrior	-12172
▁confron	-12173
▁cooking	-12174
▁crucial	-12175
▁damages	-12176
▁drafted	-12177
▁monster	-12178
▁remixes	-12179
▁streams	-12180
▁summary	-12181
▁swallow	-12182
▁uncover	-12183
clamation	-12184
foundland	-12185
▁Basement	-12186
▁Buddhist	-12187
▁Europium	-12188
▁Fountain	-12189
▁Observer	-12190
▁Starting	-12191
▁Thailand	-12192
▁averaged	-12193
▁deciding	-12194
▁editions	-12195
▁external	-12196
▁horizont	-12197
▁likewise	-12198
▁maternal	-12199
▁minerals	-12200
▁phylogen	-12201
▁pointing	-12202
▁princess	-12203
▁redesign	-12204
▁reflects	-12205
▁segments	-12206
▁stopping	-12207
▁Biography	-12208
▁Ferdinand	-12209
▁Kaimanawa	-12210
▁Lithuania	-12211
▁associate	-12212
▁competing	-12213
▁contempor	-12214
▁disappear	-12215
▁dispersed	-12216
▁donations	-12217
▁excellent	-12218
▁expanding	-12219
▁favourite	-12220
▁improving	-12221
▁passenger	-12222
▁persuaded	-12223
▁philosoph	-12224
▁portraits	-12225
▁provision	-12226
▁retreated	-12227
▁suspected	-12228
▁Adventures	-12229
▁Archbishop	-12230
▁Confession	-12231
▁Constantin	-12232
▁Expedition	-12233
▁Generation	-12234
▁Industrial	-12235
▁Okeechobee	-12236
▁challenged	-12237
▁functional	-12238
▁nineteenth	-12239
▁phenomenon	-12240
▁preventing	-12241
▁principles	-12242
▁screenplay	-12243
▁separately	-12244
▁strikeouts	-12245
▁consequence	-12246
▁distinguish	-12247
▁imagination	-12248
▁journalists	-12249
▁specialized	-12250
▁transmitted	-12251
▁Newfoundland	-12252
▁Subsequently	-12253
▁considerably	-12254
▁intersections	-12255
▁organisations	-12256
▁instrumentation	-12257
BO	-12258
SU	-12259
no	-12260
ali	-12261
aro	-12262
cor	-12263
eld	-12264
ila	-12265
ira	-12266
mem	-12267
opy	-12268
ugs	-12269
unc	-12270
▁AL	-12271
▁IR	-12272
▁ca	-12273
anga	-12274
arya	-12275
enos	-12276
full	-12277
lore	-12278
ogns	-12279
onso	-12280
pani	-12281
phae	-12282
selm	-12283
time	-12284
ulty	-12285
wend	-12286
▁126	-12287
▁355	-12288
▁978	-12289
▁Bod	-12290
▁Cry	-12291
▁Dal	-12292
▁Doc	-12293
▁Edd	-12294
▁Eps	-12295
▁Fig	-12296
▁Ker	-12297
▁Lim	-12298
▁Lin	-12299
▁ROK	-12300
▁Rat	-12301
▁Yet	-12302
▁dug	-12303
▁ecl	-12304
▁mos	-12305
▁nit	-12306
▁rus	-12307
▁spr	-12308
▁upr	-12309
ambia	-12310
amedu	-12311
avery	-12312
berry	-12313
clair	-12314
elope	-12315
emark	-12316
ester	-12317
fting	-12318
icism	-12319
iland	-12320
ilogy	-12321
inued	-12322
itall	-12323
itars	-12324
nance	-12325
oment	-12326
osely	-12327
toire	-12328
▁1836	-12329
▁1863	-12330
▁1877	-12331
▁1888	-12332
▁Arik	-12333
▁Beat	-12334
▁Berg	-12335
▁Berk	-12336
▁Boom	-12337
▁Bour	-12338
▁Cuba	-12339
▁Deal	-12340
▁Emma	-12341
▁FITs	-12342
▁Flet	-12343
▁Fund	-12344
▁Hond	-12345
▁Lead	-12346
▁Maid	-12347
▁Past	-12348
▁Pion	-12349
▁Rook	-12350
▁Suez	-12351
▁Ward	-12352
▁dads	-12353
▁danc	-12354
▁dign	-12355
▁hide	-12356
▁hurd	-12357
▁kiss	-12358
▁naut	-12359
▁sink	-12360
▁stro	-12361
▁thro	-12362
▁ties	-12363
▁tong	-12364
▁tune	-12365
annels	-12366
astian	-12367
estock	-12368
itaire	-12369
▁Aires	-12370
▁Carty	-12371
▁Chile	-12372
▁Ferry	-12373
▁Gwend	-12374
▁Horiz	-12375
▁Manor	-12376
▁Mayor	-12377
▁Recre	-12378
▁Sarah	-12379
▁Spect	-12380
▁Sport	-12381
▁Thing	-12382
▁Trade	-12383
▁Truth	-12384
▁anger	-12385
▁chase	-12386
▁climb	-12387
▁drown	-12388
▁fails	-12389
▁gains	-12390
▁grace	-12391
▁hence	-12392
▁hopes	-12393
▁modes	-12394
▁probe	-12395
▁reass	-12396
▁relax	-12397
▁relay	-12398
▁stern	-12399
▁surve	-12400
▁swept	-12401
▁tends	-12402
▁venom	-12403
▁waste	-12404
▁witch	-12405
itional	-12406
ivorous	-12407
ocation	-12408
rescent	-12409
▁Anselm	-12410
▁Barnes	-12411
▁Beyond	-12412
▁Buenos	-12413
▁Charan	-12414
▁Comair	-12415
▁Comics	-12416
▁Delano	-12417
▁Durand	-12418
▁Easter	-12419
▁Escape	-12420
▁Fisher	-12421
▁Former	-12422
▁Gothic	-12423
▁Metall	-12424
▁Moving	-12425
▁Vishnu	-12426
▁explan	-12427
▁fights	-12428
▁forget	-12429
▁hemmem	-12430
▁hiatus	-12431
▁hotels	-12432
▁incons	-12433
▁latest	-12434
▁parade	-12435
▁remote	-12436
▁rumors	-12437
▁sitcom	-12438
▁summon	-12439
▁thread	-12440
▁throws	-12441
restrial	-12442
▁Barbara	-12443
▁Capital	-12444
▁Casting	-12445
▁Mothers	-12446
▁Present	-12447
▁Reserve	-12448
▁Scandin	-12449
▁ceiling	-12450
▁convict	-12451
▁delight	-12452
▁depends	-12453
▁distort	-12454
▁enzymes	-12455
▁guitars	-12456
▁harvest	-12457
▁mammals	-12458
▁neutron	-12459
▁recalls	-12460
▁recount	-12461
▁remnant	-12462
▁thereby	-12463
▁traders	-12464
▁villain	-12465
elligence	-12466
▁Chemical	-12467
▁Leonardo	-12468
▁Monument	-12469
▁Sinclair	-12470
▁agencies	-12471
▁alphabet	-12472
▁articles	-12473
▁blockade	-12474
▁branches	-12475
▁canceled	-12476
▁channels	-12477
▁contrace	-12478
▁diseases	-12479
▁enlarged	-12480
▁everyday	-12481
▁infected	-12482
▁millions	-12483
▁nautical	-12484
▁register	-12485
▁reopened	-12486
▁reserves	-12487
▁resolved	-12488
▁scenario	-12489
▁securing	-12490
▁sometime	-12491
▁supplied	-12492
▁Arikamedu	-12493
▁Gwendolen	-12494
▁Hospitall	-12495
▁Indolence	-12496
▁Nicholson	-12497
▁breakdown	-12498
▁chemistry	-12499
▁comparing	-12500
▁demanding	-12501
▁livestock	-12502
▁mechanism	-12503
▁solitaire	-12504
▁terrorist	-12505
▁tributary	-12506
▁Historical	-12507
▁Paralympic	-12508
▁Stansfield	-12509
▁attractive	-12510
▁attributes	-12511
▁fatalities	-12512
▁repertoire	-12513
▁vulnerable	-12514
▁Confessions	-12515
▁Information	-12516
▁Observatory	-12517
▁demographic	-12518
▁descendants	-12519
▁helicopters	-12520
▁investigate	-12521
▁philosopher	-12522
▁Commandments	-12523
▁Intelligence	-12524
▁Metropolitan	-12525
▁achievements	-12526
▁downloadable	-12527
▁humanitarian	-12528
▁incorporates	-12529
▁manufacturer	-12530
▁characterised	-12531
▁contributions	-12532
▁precipitation	-12533
▁concentrations	-12534
▁correspondence	-12535
▁unsuccessfully	-12536
IV	-12537
cr	-12538
abs	-12539
adi	-12540
apa	-12541
cat	-12542
cos	-12543
erb	-12544
iri	-12545
jib	-12546
thi	-12547
usa	-12548
▁Aw	-12549
▁EU	-12550
▁MP	-12551
▁Qi	-12552
▁yl	-12553
abad	-12554
assy	-12555
idae	-12556
oved	-12557
tona	-12558
▁103	-12559
▁750	-12560
▁APF	-12561
▁Aff	-12562
▁Avt	-12563
▁Cow	-12564
▁Eno	-12565
▁Fal	-12566
▁Hod	-12567
▁McK	-12568
▁NME	-12569
▁Occ	-12570
▁Sac	-12571
▁Sug	-12572
▁Vis	-12573
▁Wit	-12574
▁dri	-12575
▁mud	-12576
avian	-12577
ayana	-12578
eland	-12579
elfth	-12580
ettel	-12581
igger	-12582
inces	-12583
irate	-12584
jibwe	-12585
music	-12586
orith	-12587
▁1853	-12588
▁1858	-12589
▁1885	-12590
▁Alph	-12591
▁Dian	-12592
▁Hoys	-12593
▁Khoo	-12594
▁Lars	-12595
▁RIAA	-12596
▁Rico	-12597
▁Rush	-12598
▁Wilf	-12599
▁adds	-12600
▁bath	-12601
▁boom	-12602
▁clad	-12603
▁dodo	-12604
▁dull	-12605
▁fest	-12606
▁flaw	-12607
▁flee	-12608
▁glac	-12609
▁incl	-12610
▁mRNA	-12611
▁mail	-12612
▁meat	-12613
▁ramp	-12614
▁root	-12615
alsock	-12616
alties	-12617
ambers	-12618
commun	-12619
course	-12620
enburg	-12621
hening	-12622
levard	-12623
omanry	-12624
oulder	-12625
overty	-12626
umping	-12627
velope	-12628
writer	-12629
▁Camer	-12630
▁Clair	-12631
▁Draft	-12632
▁Films	-12633
▁Fruit	-12634
▁Krist	-12635
▁Megan	-12636
▁Randy	-12637
▁Squad	-12638
▁Tanya	-12639
▁Towns	-12640
▁Veeru	-12641
▁ambit	-12642
▁annoy	-12643
▁blind	-12644
▁dried	-12645
▁drink	-12646
▁dynam	-12647
▁facts	-12648
▁farms	-12649
▁junta	-12650
▁proof	-12651
▁rebel	-12652
▁stump	-12653
▁uncon	-12654
▁worse	-12655
▁Bolton	-12656
▁Damage	-12657
▁Duarte	-12658
▁Indeed	-12659
▁Morris	-12660
▁Mostar	-12661
▁Ojibwe	-12662
▁Ortona	-12663
▁Pokiri	-12664
▁Regard	-12665
▁Sussex	-12666
▁Things	-12667
▁Vettel	-12668
▁beside	-12669
▁butter	-12670
▁clouds	-12671
▁comics	-12672
▁cooler	-12673
▁cruise	-12674
▁delays	-12675
▁eldest	-12676
▁errors	-12677
▁fisher	-12678
▁graphs	-12679
▁merged	-12680
▁mortar	-12681
▁output	-12682
▁panels	-12683
▁salmon	-12684
▁sketch	-12685
▁strain	-12686
▁suffer	-12687
▁summit	-12688
▁switch	-12689
▁termed	-12690
▁thanks	-12691
▁thinks	-12692
▁thirds	-12693
▁traits	-12694
▁umpire	-12695
▁versus	-12696
▁worker	-12697
▁Avtovac	-12698
▁Boulder	-12699
▁Broncos	-12700
▁Control	-12701
▁Culture	-12702
▁Felicia	-12703
▁Finland	-12704
▁Herbert	-12705
▁Manager	-12706
▁Musical	-12707
▁Muslims	-12708
▁Playing	-12709
▁Rosberg	-12710
▁Royston	-12711
▁Theater	-12712
▁amazing	-12713
▁arsenal	-12714
▁careers	-12715
▁carrier	-12716
▁ensuing	-12717
▁formula	-12718
▁frigate	-12719
▁lawsuit	-12720
▁loyalty	-12721
▁observe	-12722
▁orbital	-12723
▁outcome	-12724
▁poverty	-12725
▁predict	-12726
▁prolong	-12727
▁readily	-12728
▁routing	-12729
▁strange	-12730
▁striker	-12731
▁tension	-12732
▁veteran	-12733
▁weighed	-12734
▁Assyrian	-12735
▁Italians	-12736
▁Jennifer	-12737
▁Michaels	-12738
▁abnormal	-12739
▁algorith	-12740
▁assessed	-12741
▁charting	-12742
▁clusters	-12743
▁creature	-12744
▁damaging	-12745
▁disliked	-12746
▁dropping	-12747
▁envelope	-12748
▁floating	-12749
▁manifest	-12750
▁maturity	-12751
▁midfield	-12752
▁monaster	-12753
▁neutrino	-12754
▁proceeds	-12755
▁profound	-12756
▁relating	-12757
▁relevant	-12758
▁removing	-12759
▁repaired	-12760
▁reserved	-12761
▁skeleton	-12762
▁supports	-12763
▁township	-12764
▁Blackburn	-12765
▁Loyalsock	-12766
▁Melbourne	-12767
▁Nashville	-12768
▁Reviewers	-12769
▁acclaimed	-12770
▁ambitious	-12771
▁anonymous	-12772
▁comprises	-12773
▁confident	-12774
▁conquered	-12775
▁contacted	-12776
▁exercised	-12777
▁fortified	-12778
▁incursion	-12779
▁lifestyle	-12780
▁literally	-12781
▁maintains	-12782
▁nicknamed	-12783
▁possessed	-12784
▁projected	-12785
▁provinces	-12786
▁regiments	-12787
▁requiring	-12788
▁respected	-12789
▁seventeen	-12790
▁unusually	-12791
▁Additional	-12792
▁Expressway	-12793
▁Indonesian	-12794
▁Laboratory	-12795
▁commitment	-12796
▁complained	-12797
▁conducting	-12798
▁confluence	-12799
▁contracted	-12800
▁conviction	-12801
▁deployment	-12802
▁directions	-12803
▁discussing	-12804
▁identifies	-12805
▁imprisoned	-12806
▁navigation	-12807
▁reflection	-12808
▁regulation	-12809
▁victorious	-12810
▁Catholicism	-12811
▁Paralympics	-12812
▁Philippines	-12813
▁archipelago	-12814
▁celebration	-12815
▁discussions	-12816
▁dissolution	-12817
▁interrupted	-12818
▁legislature	-12819
▁photography	-12820
▁resignation	-12821
▁Consequently	-12822
▁accidentally	-12823
▁interception	-12824
▁intermediate	-12825
▁investigated	-12826
▁neighborhoods	-12827
▁strengthening	-12828
aki	-12829
eus	-12830
ggy	-12831
lix	-12832
rov	-12833
▁Dh	-12834
▁MI	-12835
▁PD	-12836
▁VI	-12837
▁ri	-12838
adir	-12839
avan	-12840
avor	-12841
beit	-12842
cade	-12843
dict	-12844
elin	-12845
iano	-12846
imol	-12847
irtz	-12848
mund	-12849
nery	-12850
oles	-12851
olly	-12852
olph	-12853
orms	-12854
plex	-12855
queh	-12856
ques	-12857
quet	-12858
uble	-12859
zing	-12860
▁131	-12861
▁173	-12862
▁330	-12863
▁Chu	-12864
▁Fur	-12865
▁Ket	-12866
▁Kod	-12867
▁Kus	-12868
▁LED	-12869
▁NFL	-12870
▁Ost	-12871
▁Tob	-12872
▁Tun	-12873
▁bot	-12874
▁cel	-12875
▁gif	-12876
▁mad	-12877
▁mit	-12878
▁toy	-12879
▁vig	-12880
about	-12881
akers	-12882
anagi	-12883
anyan	-12884
asant	-12885
auvel	-12886
enshm	-12887
gence	-12888
izers	-12889
layer	-12890
leted	-12891
plain	-12892
sters	-12893
swick	-12894
▁1838	-12895
▁1847	-12896
▁Aren	-12897
▁Boca	-12898
▁Doof	-12899
▁Expl	-12900
▁Fisc	-12901
▁Hang	-12902
▁Hend	-12903
▁Mend	-12904
▁Odys	-12905
▁Pear	-12906
▁Ruth	-12907
▁Trad	-12908
▁Trou	-12909
▁Wang	-12910
▁Wemb	-12911
▁Yoko	-12912
▁beta	-12913
▁bite	-12914
▁cock	-12915
▁ease	-12916
▁fing	-12917
▁hate	-12918
▁hier	-12919
▁hunt	-12920
▁infl	-12921
▁kids	-12922
▁leaf	-12923
▁lion	-12924
▁monk	-12925
▁oxid	-12926
▁peer	-12927
▁rows	-12928
▁sear	-12929
▁seed	-12930
▁spor	-12931
▁unem	-12932
▁verb	-12933
ingham	-12934
osomes	-12935
otilla	-12936
ussion	-12937
▁Diego	-12938
▁Drama	-12939
▁Drive	-12940
▁Franz	-12941
▁Hamar	-12942
▁Happy	-12943
▁Homar	-12944
▁Hutch	-12945
▁Karam	-12946
▁Lakes	-12947
▁Lands	-12948
▁Merri	-12949
▁Motor	-12950
▁Peggy	-12951
▁Perth	-12952
▁Round	-12953
▁Voice	-12954
▁Winds	-12955
▁digit	-12956
▁disch	-12957
▁ecosy	-12958
▁embry	-12959
▁jumps	-12960
▁maneu	-12961
▁parks	-12962
▁polyg	-12963
▁pseud	-12964
▁raids	-12965
▁rises	-12966
▁snake	-12967
▁spite	-12968
▁swing	-12969
▁unpop	-12970
▁width	-12971
angered	-12972
jection	-12973
▁Albion	-12974
▁Austin	-12975
▁Chopin	-12976
▁Female	-12977
▁Fourth	-12978
▁Galile	-12979
▁Gerald	-12980
▁Munich	-12981
▁Oliver	-12982
▁Olivia	-12983
▁Tucker	-12984
▁Wanyan	-12985
▁Warsaw	-12986
▁accord	-12987
▁acquis	-12988
▁admits	-12989
▁albeit	-12990
▁allies	-12991
▁betray	-12992
▁breast	-12993
▁bronze	-12994
▁dimens	-12995
▁easier	-12996
▁enable	-12997
▁frames	-12998
▁hairst	-12999
▁harbor	-13000
▁ironcl	-13001
▁metals	-13002
▁metaph	-13003
▁nuclei	-13004
▁proced	-13005
▁random	-13006
▁recapt	-13007
▁shoots	-13008
▁stanza	-13009
▁suspic	-13010
▁tactic	-13011
▁traces	-13012
▁voyage	-13013
jections	-13014
quehanna	-13015
▁Borough	-13016
▁Chapman	-13017
▁Chauvel	-13018
▁Colonna	-13019
▁Ferrari	-13020
▁Fiction	-13021
▁Fischer	-13022
▁Hungary	-13023
▁Indians	-13024
▁Knights	-13025
▁Volunte	-13026
▁Wembley	-13027
▁Written	-13028
▁acquire	-13029
▁alcohol	-13030
▁belongs	-13031
▁chancel	-13032
▁colored	-13033
▁elderly	-13034
▁equally	-13035
▁expense	-13036
▁facilit	-13037
▁forever	-13038
▁jealous	-13039
▁lighter	-13040
▁mistake	-13041
▁prosper	-13042
▁remixed	-13043
▁sailing	-13044
▁sinking	-13045
▁spawned	-13046
▁spelled	-13047
▁theolog	-13048
▁typhoon	-13049
▁variant	-13050
▁visitor	-13051
▁welcome	-13052
enshmirtz	-13053
▁Airlines	-13054
▁Brothers	-13055
▁Kentucky	-13056
▁Kusanagi	-13057
▁Mortimer	-13058
▁Muhammad	-13059
▁Pleasure	-13060
▁Symphony	-13061
▁actively	-13062
▁barracks	-13063
▁cellular	-13064
▁clearing	-13065
▁disorder	-13066
▁eastward	-13067
▁educated	-13068
▁evacuate	-13069
▁patients	-13070
▁quarters	-13071
▁swimming	-13072
▁tactical	-13073
▁theories	-13074
▁thorough	-13075
▁tracking	-13076
▁troubles	-13077
▁unemploy	-13078
▁warships	-13079
▁Architect	-13080
▁Brigadier	-13081
▁Brunswick	-13082
▁Destroyer	-13083
▁Offensive	-13084
▁Surrender	-13085
▁affection	-13086
▁captivity	-13087
▁carriages	-13088
▁collision	-13089
▁colonists	-13090
▁concludes	-13091
▁ecosystem	-13092
▁inflicted	-13093
▁instances	-13094
▁neglected	-13095
▁reasoning	-13096
▁relocated	-13097
▁telephone	-13098
▁thickness	-13099
▁undertook	-13100
▁Lithuanian	-13101
▁Merrifield	-13102
▁amphibious	-13103
▁competitor	-13104
▁evacuation	-13105
▁formations	-13106
▁graduating	-13107
▁highlights	-13108
▁luminosity	-13109
▁physically	-13110
▁provisions	-13111
▁remembered	-13112
▁separation	-13113
▁substances	-13114
▁Susquehanna	-13115
▁Yellowstone	-13116
▁anticipated	-13117
▁coordinated	-13118
▁dimensional	-13119
▁jackrabbits	-13120
▁multiplayer	-13121
▁prosecution	-13122
▁sympathetic	-13123
▁threatening	-13124
▁topological	-13125
▁civilization	-13126
▁disappointed	-13127
▁imprisonment	-13128
▁manufactured	-13129
▁preparations	-13130
▁protagonists	-13131
▁Doofenshmirtz	-13132
▁Revolutionary	-13133
▁extraordinary	-13134
▁participating	-13135
▁substantially	-13136
▁traditionally	-13137
Sh	-13138
Sp	-13139
eh	-13140
ami	-13141
aos	-13142
apy	-13143
asg	-13144
dam	-13145
fam	-13146
gna	-13147
ici	-13148
oub	-13149
ova	-13150
roc	-13151
uen	-13152
ugg	-13153
▁Ib	-13154
▁VH	-13155
▁Zr	-13156
▁ey	-13157
▁ol	-13158
▁pm	-13159
▁ye	-13160
acea	-13161
acon	-13162
airn	-13163
ante	-13164
anti	-13165
aric	-13166
avis	-13167
bard	-13168
ckii	-13169
cler	-13170
cont	-13171
ctic	-13172
dman	-13173
elih	-13174
elta	-13175
ensa	-13176
grim	-13177
hous	-13178
iths	-13179
obon	-13180
ogle	-13181
osts	-13182
quir	-13183
quis	-13184
rect	-13185
rels	-13186
rhiz	-13187
rice	-13188
tery	-13189
uzzi	-13190
▁135	-13191
▁171	-13192
▁260	-13193
▁CAT	-13194
▁Gri	-13195
▁Jai	-13196
▁Lem	-13197
▁MCC	-13198
▁Mas	-13199
▁Ori	-13200
▁Pil	-13201
▁Pra	-13202
▁Sag	-13203
▁Sic	-13204
▁Sit	-13205
▁Ted	-13206
▁gam	-13207
▁gay	-13208
▁guy	-13209
▁oak	-13210
▁reh	-13211
Shara	-13212
acrit	-13213
amaic	-13214
andhi	-13215
araoh	-13216
areth	-13217
arsha	-13218
asgow	-13219
asury	-13220
cairn	-13221
ellor	-13222
entin	-13223
geant	-13224
heric	-13225
iture	-13226
olulu	-13227
onald	-13228
reece	-13229
tures	-13230
utors	-13231
▁1837	-13232
▁1876	-13233
▁1883	-13234
▁Andr	-13235
▁Aval	-13236
▁Hadd	-13237
▁Hold	-13238
▁Iber	-13239
▁Kend	-13240
▁LiSA	-13241
▁Mits	-13242
▁Pozz	-13243
▁Prop	-13244
▁Schm	-13245
▁Seas	-13246
▁Stay	-13247
▁Trip	-13248
▁calm	-13249
▁epit	-13250
▁inex	-13251
▁myel	-13252
▁nons	-13253
▁pock	-13254
▁rice	-13255
▁sank	-13256
▁silk	-13257
▁synd	-13258
▁upgr	-13259
▁zero	-13260
annadh	-13261
clerod	-13262
enesis	-13263
olving	-13264
points	-13265
rosoft	-13266
uclear	-13267
▁Appro	-13268
▁Clear	-13269
▁Essex	-13270
▁Josce	-13271
▁Large	-13272
▁Males	-13273
▁Price	-13274
▁Raton	-13275
▁Recon	-13276
▁Schol	-13277
▁Somet	-13278
▁Susan	-13279
▁Zhang	-13280
▁blame	-13281
▁conif	-13282
▁cruzi	-13283
▁eaten	-13284
▁empty	-13285
▁encom	-13286
▁fever	-13287
▁filmm	-13288
▁fluid	-13289
▁gills	-13290
▁inhib	-13291
▁loose	-13292
▁opted	-13293
▁quake	-13294
▁rocky	-13295
▁solve	-13296
▁toxic	-13297
▁widow	-13298
acritic	-13299
corrhiz	-13300
elihood	-13301
inental	-13302
limited	-13303
ucalypt	-13304
▁Assist	-13305
▁Browns	-13306
▁Candid	-13307
▁Capcom	-13308
▁Colony	-13309
▁Connie	-13310
▁Crowns	-13311
▁GameSp	-13312
▁Gandhi	-13313
▁Greece	-13314
▁Harsha	-13315
▁Huguen	-13316
▁Hunter	-13317
▁Marcus	-13318
▁Medway	-13319
▁Moment	-13320
▁Nature	-13321
▁Newark	-13322
▁Number	-13323
▁Period	-13324
▁Pierre	-13325
▁Plensa	-13326
▁Powers	-13327
▁Prepar	-13328
▁Thames	-13329
▁Trials	-13330
▁Wonder	-13331
▁archer	-13332
▁assign	-13333
▁crimes	-13334
▁ensued	-13335
▁fossil	-13336
▁graves	-13337
▁honest	-13338
▁infilt	-13339
▁judged	-13340
▁marble	-13341
▁mating	-13342
▁outfit	-13343
▁palace	-13344
▁peckii	-13345
▁rubble	-13346
▁scales	-13347
▁silent	-13348
▁stroke	-13349
▁tackle	-13350
▁turret	-13351
numbered	-13352
obonelli	-13353
otherapy	-13354
stituted	-13355
▁Aramaic	-13356
▁Chamber	-13357
▁Chapter	-13358
▁Clement	-13359
▁Cooksey	-13360
▁Crystal	-13361
▁Feldman	-13362
▁Glasgow	-13363
▁Jeffrey	-13364
▁Lowland	-13365
▁Mitsuda	-13366
▁Notting	-13367
▁Pradesh	-13368
▁Saginaw	-13369
▁Sclerod	-13370
▁Support	-13371
▁Viaduct	-13372
▁assured	-13373
▁bishops	-13374
▁bowlers	-13375
▁discour	-13376
▁dissent	-13377
▁drummer	-13378
▁endemic	-13379
▁gardens	-13380
▁grammar	-13381
▁issuing	-13382
▁leather	-13383
▁lowered	-13384
▁masters	-13385
▁museums	-13386
▁nursery	-13387
▁overlap	-13388
▁parking	-13389
▁recruit	-13390
▁reorgan	-13391
▁revenge	-13392
▁statute	-13393
▁steambo	-13394
▁superst	-13395
▁teaches	-13396
▁tourism	-13397
▁viewing	-13398
▁warrant	-13399
imination	-13400
▁Adriatic	-13401
▁Americas	-13402
▁Commando	-13403
▁Fantuzzi	-13404
▁Fletcher	-13405
▁Literary	-13406
▁Pitcairn	-13407
▁Savannah	-13408
▁Stoppani	-13409
▁Wildlife	-13410
▁Yugoslav	-13411
▁adequate	-13412
▁analyzed	-13413
▁basement	-13414
▁coloured	-13415
▁comedian	-13416
▁compiled	-13417
▁conquest	-13418
▁dressing	-13419
▁frontier	-13420
▁grandson	-13421
▁internet	-13422
▁kingship	-13423
▁occupies	-13424
▁predator	-13425
▁prisoner	-13426
▁prolific	-13427
▁regained	-13428
▁sediment	-13429
▁survives	-13430
▁terrible	-13431
▁violacea	-13432
▁wildlife	-13433
▁Broadcast	-13434
▁Catherine	-13435
▁Friedrich	-13436
▁Jagannadh	-13437
▁Labyrinth	-13438
▁Microsoft	-13439
▁Newcastle	-13440
▁Sometimes	-13441
▁Sovereign	-13442
▁averaging	-13443
▁celebrity	-13444
▁decreased	-13445
▁delegates	-13446
▁discusses	-13447
▁disturbed	-13448
▁encompass	-13449
▁inconsist	-13450
▁incorrect	-13451
▁inscribed	-13452
▁introduce	-13453
▁parasites	-13454
▁poisoning	-13455
▁practical	-13456
▁prototype	-13457
▁reprinted	-13458
▁signature	-13459
▁specially	-13460
▁trademark	-13461
▁villagers	-13462
▁volunteer	-13463
unicipality	-13464
▁Metacritic	-13465
▁Pittsburgh	-13466
▁Publishing	-13467
▁accessible	-13468
▁aerodromes	-13469
▁collecting	-13470
▁comparable	-13471
▁conception	-13472
▁definitely	-13473
▁explicitly	-13474
▁innovative	-13475
▁reassigned	-13476
▁Nonetheless	-13477
▁adaptations	-13478
▁possessions	-13479
▁songwriting	-13480
▁Pozzobonelli	-13481
▁associations	-13482
▁chemotherapy	-13483
▁congregation	-13484
▁consequences	-13485
▁discontinued	-13486
▁entertaining	-13487
▁expectations	-13488
▁northwestern	-13489
▁predecessors	-13490
▁southwestern	-13491
▁Constantinople	-13492
▁contemporaries	-13493
▁fortifications	-13494
LC	-13495
MC	-13496
ya	-13497
za	-13498
alo	-13499
emi	-13500
enh	-13501
igu	-13502
isd	-13503
lio	-13504
lon	-13505
▁Cu	-13506
▁DJ	-13507
▁Hi	-13508
▁UC	-13509
acht	-13510
anim	-13511
anth	-13512
iens	-13513
iker	-13514
imon	-13515
leki	-13516
oina	-13517
omon	-13518
ompe	-13519
oons	-13520
opol	-13521
tron	-13522
uchi	-13523
uded	-13524
▁107	-13525
▁109	-13526
▁217	-13527
▁550	-13528
▁878	-13529
▁Nam	-13530
▁Ono	-13531
▁Pel	-13532
▁RAR	-13533
▁Rub	-13534
▁Sel	-13535
▁Tar	-13536
▁Toy	-13537
▁WCW	-13538
▁fab	-13539
▁fib	-13540
▁oct	-13541
▁ode	-13542
▁tag	-13543
▁vow	-13544
agram	-13545
amped	-13546
aples	-13547
arden	-13548
esque	-13549
front	-13550
gradu	-13551
iants	-13552
immer	-13553
lesey	-13554
odied	-13555
outed	-13556
ppets	-13557
raine	-13558
umped	-13559
▁1852	-13560
▁1866	-13561
▁1872	-13562
▁Aden	-13563
▁Bach	-13564
▁Core	-13565
▁Fine	-13566
▁Glen	-13567
▁Idol	-13568
▁Iran	-13569
▁Kras	-13570
▁Luis	-13571
▁Mann	-13572
▁Rand	-13573
▁Roll	-13574
▁Sche	-13575
▁Timb	-13576
▁Visc	-13577
▁aren	-13578
▁bapt	-13579
▁buck	-13580
▁chef	-13581
▁emig	-13582
▁fees	-13583
▁funk	-13584
▁gate	-13585
▁gran	-13586
▁grid	-13587
▁joke	-13588
▁mock	-13589
▁shar	-13590
▁tiny	-13591
▁tool	-13592
▁tube	-13593
▁unve	-13594
▁user	-13595
▁vent	-13596
actory	-13597
agonal	-13598
airman	-13599
iating	-13600
rypton	-13601
thodox	-13602
▁Abram	-13603
▁Babyl	-13604
▁Belie	-13605
▁Byron	-13606
▁Chanc	-13607
▁Chenn	-13608
▁Eddie	-13609
▁Epsom	-13610
▁Hindi	-13611
▁Pompe	-13612
▁Siber	-13613
▁Sugar	-13614
▁Templ	-13615
▁Tests	-13616
▁Uleki	-13617
▁Whole	-13618
▁annex	-13619
▁blank	-13620
▁boost	-13621
▁cameo	-13622
▁cloth	-13623
▁dolls	-13624
▁evalu	-13625
▁flame	-13626
▁galax	-13627
▁lakes	-13628
▁moons	-13629
▁nests	-13630
▁papal	-13631
▁parad	-13632
▁polar	-13633
▁progn	-13634
▁prose	-13635
▁proud	-13636
▁seize	-13637
▁sheet	-13638
▁shoes	-13639
▁slope	-13640
▁spear	-13641
▁topic	-13642
▁tough	-13643
▁unity	-13644
▁unrel	-13645
ctioned	-13646
mitting	-13647
versely	-13648
▁Adrian	-13649
▁Azores	-13650
▁Braves	-13651
▁Campus	-13652
▁Cecily	-13653
▁Dreams	-13654
▁Eguchi	-13655
▁Foster	-13656
▁Harmon	-13657
▁Harvey	-13658
▁Method	-13659
▁Nomura	-13660
▁Ranger	-13661
▁Rovers	-13662
▁Senior	-13663
▁Stokes	-13664
▁Visual	-13665
▁Winter	-13666
▁assume	-13667
▁barons	-13668
▁binary	-13669
▁burrow	-13670
▁cannon	-13671
▁compat	-13672
▁corpse	-13673
▁domain	-13674
▁fierce	-13675
▁gaming	-13676
▁harass	-13677
▁honors	-13678
▁hyphae	-13679
▁improv	-13680
▁jurisd	-13681
▁leaked	-13682
▁loaded	-13683
▁median	-13684
▁ornith	-13685
▁phases	-13686
▁plates	-13687
▁rework	-13688
▁satire	-13689
▁suited	-13690
▁topics	-13691
▁trucks	-13692
▁unanim	-13693
ickenham	-13694
▁Abraham	-13695
▁Domoina	-13696
▁Evening	-13697
▁Holland	-13698
▁Lebanon	-13699
▁Located	-13700
▁Palmyra	-13701
▁Pioneer	-13702
▁aggress	-13703
▁angered	-13704
▁anthrop	-13705
▁beaches	-13706
▁beneath	-13707
▁boilers	-13708
▁borough	-13709
▁coupled	-13710
▁degener	-13711
▁drought	-13712
▁editors	-13713
▁electro	-13714
▁enhance	-13715
▁ensured	-13716
▁escapes	-13717
▁faculty	-13718
▁farther	-13719
▁favored	-13720
▁genuine	-13721
▁hanging	-13722
▁hurdles	-13723
▁loading	-13724
▁manages	-13725
▁nesting	-13726
▁pleased	-13727
▁puppets	-13728
▁rivalry	-13729
▁shipped	-13730
▁slavery	-13731
▁stretch	-13732
▁unaware	-13733
▁warrior	-13734
ographies	-13735
▁Allmusic	-13736
▁Anglesey	-13737
▁Brighton	-13738
▁Bulgaria	-13739
▁Chairman	-13740
▁Complete	-13741
▁Electric	-13742
▁Hereford	-13743
▁Hibiscus	-13744
▁Malaysia	-13745
▁Rhodesia	-13746
▁Sciences	-13747
▁Services	-13748
▁Viscount	-13749
▁Yeomanry	-13750
▁authored	-13751
▁biblical	-13752
▁contempl	-13753
▁corridor	-13754
▁cultures	-13755
▁darkness	-13756
▁disputes	-13757
▁engaging	-13758
▁excluded	-13759
▁imported	-13760
▁informal	-13761
▁innocent	-13762
▁managing	-13763
▁metallic	-13764
▁murdered	-13765
▁oriented	-13766
▁peaceful	-13767
▁reagents	-13768
▁shelters	-13769
▁software	-13770
▁speakers	-13771
▁spectrum	-13772
▁symbolic	-13773
▁theaters	-13774
▁websites	-13775
▁Character	-13776
▁Metallica	-13777
▁Patriarch	-13778
▁Personnel	-13779
▁Robertson	-13780
▁Timbaland	-13781
▁abolished	-13782
▁activated	-13783
▁afterward	-13784
▁composers	-13785
▁consensus	-13786
▁contested	-13787
▁descended	-13788
▁disagreed	-13789
▁diversity	-13790
▁encourage	-13791
▁expecting	-13792
▁flashback	-13793
▁hadrosaur	-13794
▁incidents	-13795
▁investors	-13796
▁listening	-13797
▁numbering	-13798
▁privately	-13799
▁supporter	-13800
▁temperate	-13801
▁tolerance	-13802
▁transform	-13803
▁varieties	-13804
▁Commercial	-13805
▁Convention	-13806
▁Hindenburg	-13807
▁Recreation	-13808
▁Townsville	-13809
▁Twickenham	-13810
▁advantages	-13811
▁advisories	-13812
▁altogether	-13813
▁attraction	-13814
▁barometric	-13815
▁ceremonial	-13816
▁circulated	-13817
▁collective	-13818
▁commanding	-13819
▁compromise	-13820
▁contribute	-13821
▁depictions	-13822
▁discipline	-13823
▁frustrated	-13824
▁proclaimed	-13825
▁surprising	-13826
▁undergradu	-13827
▁Confederate	-13828
▁Engineering	-13829
▁Springfield	-13830
▁competitors	-13831
▁controlling	-13832
▁countryside	-13833
▁experiments	-13834
▁financially	-13835
▁manufacture	-13836
▁overlooking	-13837
▁Distribution	-13838
▁astronomical	-13839
▁collectively	-13840
▁denomination	-13841
▁individually	-13842
▁consciousness	-13843
▁illustrations	-13844
▁manufacturers	-13845
▁northwestward	-13846
▁identification	-13847
▁accomplishments	-13848
Ch	-13849
TW	-13850
ja	-13851
TWC	-13852
aba	-13853
bro	-13854
ele	-13855
icy	-13856
ige	-13857
ikh	-13858
lan	-13859
mal	-13860
rah	-13861
umi	-13862
zer	-13863
▁Ga	-13864
▁Ps	-13865
▁Va	-13866
Down	-13867
acco	-13868
afts	-13869
ampa	-13870
arta	-13871
asma	-13872
beat	-13873
bern	-13874
cach	-13875
erts	-13876
game	-13877
holm	-13878
huve	-13879
idan	-13880
oria	-13881
perm	-13882
phan	-13883
rage	-13884
riet	-13885
rink	-13886
uder	-13887
uhan	-13888
usil	-13889
▁243	-13890
▁Ahk	-13891
▁Bry	-13892
▁CAA	-13893
▁Chi	-13894
▁Env	-13895
▁Est	-13896
▁Hyd	-13897
▁Ist	-13898
▁Jar	-13899
▁Kin	-13900
▁Ltd	-13901
▁Nag	-13902
▁Nig	-13903
▁Tak	-13904
▁Tal	-13905
▁Thi	-13906
▁Upr	-13907
▁Voy	-13908
▁WWE	-13909
▁Wey	-13910
▁joy	-13911
▁lib	-13912
▁lod	-13913
▁odd	-13914
▁ram	-13915
ajors	-13916
archy	-13917
cedes	-13918
dings	-13919
insky	-13920
nival	-13921
opsis	-13922
raeus	-13923
▁1820	-13924
▁1842	-13925
▁1855	-13926
▁1886	-13927
▁ARIA	-13928
▁Agre	-13929
▁Amun	-13930
▁Arbe	-13931
▁Arms	-13932
▁Bore	-13933
▁Buch	-13934
▁Cert	-13935
▁Cove	-13936
▁Grey	-13937
▁Hern	-13938
▁JTWC	-13939
▁Jill	-13940
▁Kahn	-13941
▁Meri	-13942
▁Mult	-13943
▁Prim	-13944
▁Rear	-13945
▁Tang	-13946
▁Wald	-13947
▁bunk	-13948
▁bush	-13949
▁cure	-13950
▁demo	-13951
▁dent	-13952
▁dogs	-13953
▁hack	-13954
▁hurt	-13955
▁keen	-13956
▁kidn	-13957
▁lock	-13958
▁ment	-13959
▁obso	-13960
▁shed	-13961
▁subd	-13962
▁taxi	-13963
▁touc	-13964
▁tran	-13965
▁ware	-13966
▁wire	-13967
aphore	-13968
avelin	-13969
berger	-13970
boards	-13971
huveer	-13972
izards	-13973
nesday	-13974
ontane	-13975
▁Armed	-13976
▁Aside	-13977
▁Blake	-13978
▁Colin	-13979
▁Delhi	-13980
▁Eleph	-13981
▁Flash	-13982
▁Flood	-13983
▁Fulbe	-13984
▁Fusil	-13985
▁Hardy	-13986
▁Huron	-13987
▁Inari	-13988
▁Kashi	-13989
▁Lions	-13990
▁Massa	-13991
▁Money	-13992
▁Nancy	-13993
▁Nobel	-13994
▁Novak	-13995
▁Ports	-13996
▁Pruss	-13997
▁Rifle	-13998
▁Smack	-13999
▁Solar	-14000
▁Solid	-14001
▁Tamil	-14002
▁Wayne	-14003
▁Woods	-14004
▁Wyatt	-14005
▁affir	-14006
▁aging	-14007
▁atoms	-14008
▁blast	-14009
▁cream	-14010
▁eager	-14011
▁flatt	-14012
▁horns	-14013
▁lambe	-14014
▁merge	-14015
▁meter	-14016
▁mound	-14017
▁mycel	-14018
▁myths	-14019
▁optim	-14020
▁overr	-14021
▁owing	-14022
▁paved	-14023
▁recip	-14024
▁rings	-14025
▁riots	-14026
▁roofs	-14027
▁spans	-14028
▁sperm	-14029
▁stair	-14030
▁stiff	-14031
▁sweep	-14032
▁tides	-14033
▁trips	-14034
astered	-14035
chestra	-14036
ighting	-14037
instein	-14038
marcach	-14039
rolling	-14040
▁Always	-14041
▁Bruges	-14042
▁Choice	-14043
▁Cobain	-14044
▁Disney	-14045
▁Edmund	-14046
▁Hispan	-14047
▁Legisl	-14048
▁Ludlow	-14049
▁Memory	-14050
▁Mobile	-14051
▁Ostend	-14052
▁Plains	-14053
▁Rowson	-14054
▁Strong	-14055
▁Thakur	-14056
▁Triple	-14057
▁Vaishn	-14058
▁Weyden	-14059
▁afraid	-14060
▁airing	-14061
▁brutal	-14062
▁climax	-14063
▁curren	-14064
▁darker	-14065
▁exempt	-14066
▁facade	-14067
▁freely	-14068
▁heaven	-14069
▁intrig	-14070
▁layout	-14071
▁medley	-14072
▁notion	-14073
▁papers	-14074
▁parrot	-14075
▁plasma	-14076
▁prices	-14077
▁reluct	-14078
▁ruined	-14079
▁slated	-14080
▁stored	-14081
▁terror	-14082
▁tongue	-14083
▁united	-14084
▁virtue	-14085
ellation	-14086
historic	-14087
igations	-14088
▁Bridges	-14089
▁Cavalry	-14090
▁Chester	-14091
▁McLuhan	-14092
▁Origins	-14093
▁Singing	-14094
▁Various	-14095
▁Voyager	-14096
▁Winston	-14097
▁Working	-14098
▁circles	-14099
▁convert	-14100
▁couples	-14101
▁courage	-14102
▁crowned	-14103
▁dancers	-14104
▁devices	-14105
▁dresses	-14106
▁estates	-14107
▁estuary	-14108
▁excited	-14109
▁faction	-14110
▁fingers	-14111
▁fission	-14112
▁fortune	-14113
▁fossils	-14114
▁javelin	-14115
▁kitchen	-14116
▁mansion	-14117
▁militia	-14118
▁notices	-14119
▁plateau	-14120
▁precise	-14121
▁privile	-14122
▁publish	-14123
▁realize	-14124
▁ridicul	-14125
▁stained	-14126
▁stepped	-14127
▁sulfide	-14128
▁tackles	-14129
▁treason	-14130
▁varying	-14131
▁vintage	-14132
▁Agricult	-14133
▁Airborne	-14134
▁Antilles	-14135
▁Arbeider	-14136
▁Astraeus	-14137
▁Crusader	-14138
▁Dinosaur	-14139
▁Gameplay	-14140
▁Guybrush	-14141
▁Hangzhou	-14142
▁Longacre	-14143
▁Mercedes	-14144
▁Proteins	-14145
▁Recorded	-14146
▁Uprising	-14147
▁Woodfull	-14148
▁Woodward	-14149
▁advocate	-14150
▁airlines	-14151
▁anywhere	-14152
▁brownish	-14153
▁captains	-14154
▁cleaning	-14155
▁decisive	-14156
▁dictator	-14157
▁eligible	-14158
▁employee	-14159
▁escorted	-14160
▁extrater	-14161
▁farmland	-14162
▁favoured	-14163
▁fighters	-14164
▁fortress	-14165
▁humorous	-14166
▁inferior	-14167
▁instruct	-14168
▁invented	-14169
▁molecule	-14170
▁monitors	-14171
▁obsolete	-14172
▁ornament	-14173
▁performs	-14174
▁populace	-14175
▁realizes	-14176
▁requests	-14177
▁scrapped	-14178
▁seasonal	-14179
▁spontane	-14180
▁strictly	-14181
▁supervis	-14182
▁surfaces	-14183
▁tensions	-14184
▁uprising	-14185
▁warnings	-14186
ortunately	-14187
▁Adventure	-14188
▁Agreement	-14189
▁Fusiliers	-14190
▁Princeton	-14191
▁Raghuveer	-14192
▁Semaphore	-14193
▁SmackDown	-14194
▁Something	-14195
▁Southeast	-14196
▁Stockholm	-14197
▁Wednesday	-14198
▁carefully	-14199
▁crusaders	-14200
▁cytoplasm	-14201
▁desperate	-14202
▁diagnosed	-14203
▁discarded	-14204
▁disciples	-14205
▁explosion	-14206
▁induction	-14207
▁inherited	-14208
▁intensify	-14209
▁placement	-14210
▁pseudonym	-14211
▁publicity	-14212
▁rearguard	-14213
▁resembles	-14214
▁revealing	-14215
▁sovereign	-14216
▁squadrons	-14217
▁telescope	-14218
▁unpopular	-14219
▁Echmarcach	-14220
▁Ultimately	-14221
▁Zealanders	-14222
▁absolutely	-14223
▁complaints	-14224
▁flightless	-14225
▁horizontal	-14226
▁hurricanes	-14227
▁membership	-14228
▁millimeter	-14229
▁moderately	-14230
▁nationally	-14231
▁orchestral	-14232
▁politician	-14233
▁protective	-14234
▁publishers	-14235
▁struggling	-14236
▁underlying	-14237
▁Environment	-14238
▁accumulated	-14239
▁accusations	-14240
▁commercials	-14241
▁determining	-14242
▁electricity	-14243
▁introducing	-14244
▁legislative	-14245
▁limitations	-14246
▁necessarily	-14247
▁prominently	-14248
▁regulations	-14249
▁requirement	-14250
▁sponsorship	-14251
▁subordinate	-14252
▁symmetrical	-14253
▁ceratopsians	-14254
▁coordination	-14255
▁neighbouring	-14256
▁technologies	-14257
▁autobiography	-14258
▁confrontation	-14259
▁investigating	-14260
20	-14261
Xe	-14262
uz	-14263
va	-14264
Con	-14265
Oct	-14266
abl	-14267
ibe	-14268
igo	-14269
iph	-14270
nik	-14271
umm	-14272
uts	-14273
wyn	-14274
yat	-14275
yll	-14276
zog	-14277
▁Ay	-14278
▁Fu	-14279
▁NP	-14280
▁iT	-14281
ache	-14282
ajal	-14283
anus	-14284
arge	-14285
bach	-14286
dish	-14287
eded	-14288
empl	-14289
hand	-14290
ivor	-14291
muda	-14292
udor	-14293
unct	-14294
very	-14295
zher	-14296
▁152	-14297
▁153	-14298
▁280	-14299
▁370	-14300
▁AOC	-14301
▁Cox	-14302
▁Cul	-14303
▁Cur	-14304
▁Ely	-14305
▁FAU	-14306
▁Fro	-14307
▁HIV	-14308
▁Hew	-14309
▁Ice	-14310
▁Kan	-14311
▁Kon	-14312
▁Kur	-14313
▁Led	-14314
▁Mak	-14315
▁Ras	-14316
▁Raw	-14317
▁Rhy	-14318
▁Rut	-14319
▁Seb	-14320
▁Voc	-14321
▁Why	-14322
▁XeF	-14323
▁aft	-14324
▁dip	-14325
▁kun	-14326
▁web	-14327
aford	-14328
andal	-14329
atisf	-14330
atoes	-14331
aurus	-14332
ectic	-14333
esses	-14334
icine	-14335
illon	-14336
ineas	-14337
inely	-14338
iolet	-14339
jiang	-14340
mates	-14341
olese	-14342
orian	-14343
orsal	-14344
ostic	-14345
ouver	-14346
sogna	-14347
stown	-14348
▁1769	-14349
▁1833	-14350
▁1879	-14351
▁Anna	-14352
▁Belf	-14353
▁Cann	-14354
▁Carr	-14355
▁Coss	-14356
▁Exam	-14357
▁Figg	-14358
▁Hast	-14359
▁Hous	-14360
▁Laur	-14361
▁Llan	-14362
▁Ming	-14363
▁Mott	-14364
▁Nina	-14365
▁Pand	-14366
▁Shan	-14367
▁Task	-14368
▁font	-14369
▁gras	-14370
▁haun	-14371
▁hell	-14372
▁inac	-14373
▁judg	-14374
▁lung	-14375
▁outp	-14376
▁outs	-14377
▁oval	-14378
▁perc	-14379
▁pest	-14380
▁pier	-14381
▁pope	-14382
▁tech	-14383
▁ther	-14384
▁tide	-14385
▁unre	-14386
▁vass	-14387
Octane	-14388
market	-14389
merged	-14390
otypes	-14391
strong	-14392
terson	-14393
ulator	-14394
▁Above	-14395
▁Arena	-14396
▁Bened	-14397
▁Brand	-14398
▁Chase	-14399
▁Comet	-14400
▁Diana	-14401
▁Diane	-14402
▁Eliot	-14403
▁Faith	-14404
▁Kling	-14405
▁Liang	-14406
▁Megal	-14407
▁Moray	-14408
▁Norse	-14409
▁Plant	-14410
▁Tudor	-14411
▁Using	-14412
▁Woman	-14413
▁aisle	-14414
▁alike	-14415
▁antib	-14416
▁blown	-14417
▁cabin	-14418
▁drunk	-14419
▁indie	-14420
▁input	-14421
▁lamps	-14422
▁lease	-14423
▁loses	-14424
▁niece	-14425
▁pagan	-14426
▁patch	-14427
▁rails	-14428
▁shops	-14429
▁sizes	-14430
▁stuff	-14431
▁telev	-14432
▁tribe	-14433
▁wears	-14434
▁wheat	-14435
ertiary	-14436
gestion	-14437
ocratic	-14438
zherzog	-14439
▁Arabia	-14440
▁Benson	-14441
▁Bullet	-14442
▁Cherry	-14443
▁Herbie	-14444
▁Junior	-14445
▁Kakapo	-14446
▁Kubica	-14447
▁Levine	-14448
▁Nation	-14449
▁Parade	-14450
▁Planet	-14451
▁Platte	-14452
▁Poetry	-14453
▁Raiden	-14454
▁Spirit	-14455
▁Steven	-14456
▁Tomita	-14457
▁Tracks	-14458
▁bacter	-14459
▁bowler	-14460
▁button	-14461
▁cement	-14462
▁copper	-14463
▁deeper	-14464
▁dorsal	-14465
▁edible	-14466
▁exempl	-14467
▁firmly	-14468
▁flanks	-14469
▁floors	-14470
▁folded	-14471
▁iTunes	-14472
▁indoor	-14473
▁insert	-14474
▁intent	-14475
▁killer	-14476
▁ladies	-14477
▁laying	-14478
▁marrow	-14479
▁masses	-14480
▁merger	-14481
▁motifs	-14482
▁orbits	-14483
▁racial	-14484
▁replay	-14485
▁scream	-14486
▁sealed	-14487
▁shirts	-14488
▁spaced	-14489
▁speaks	-14490
▁steady	-14491
▁stumps	-14492
▁tended	-14493
▁timing	-14494
▁wouldn	-14495
aluation	-14496
cologist	-14497
esthetic	-14498
lections	-14499
ographed	-14500
▁Belfast	-14501
▁Bermuda	-14502
▁Certain	-14503
▁Dorothy	-14504
▁Fairies	-14505
▁Haddock	-14506
▁Hermann	-14507
▁Hoysala	-14508
▁Hubbard	-14509
▁Individ	-14510
▁Odyssey	-14511
▁Orsogna	-14512
▁Picture	-14513
▁Proctor	-14514
▁Typhoon	-14515
▁affects	-14516
▁broadly	-14517
▁combine	-14518
▁costume	-14519
▁derives	-14520
▁digging	-14521
▁dubious	-14522
▁knowing	-14523
▁lengthy	-14524
▁linking	-14525
▁loosely	-14526
▁persona	-14527
▁pretend	-14528
▁realism	-14529
▁referee	-14530
▁rehabil	-14531
▁relaxed	-14532
▁remarks	-14533
▁resurre	-14534
▁rumours	-14535
▁synonym	-14536
▁twelfth	-14537
▁zombies	-14538
ictionary	-14539
inguished	-14540
▁Benedict	-14541
▁Carlisle	-14542
▁Colombia	-14543
▁Combined	-14544
▁Phillips	-14545
▁Portable	-14546
▁Portland	-14547
▁Portrait	-14548
▁Reformed	-14549
▁Rockstar	-14550
▁Senators	-14551
▁Sleaford	-14552
▁Survivor	-14553
▁Training	-14554
▁Turnpike	-14555
▁appealed	-14556
▁avoiding	-14557
▁consumed	-14558
▁deadline	-14559
▁delicate	-14560
▁detached	-14561
▁ensuring	-14562
▁eucalypt	-14563
▁explorer	-14564
▁fragilis	-14565
▁grossing	-14566
▁heaviest	-14567
▁holotype	-14568
▁keyboard	-14569
▁lighting	-14570
▁marketed	-14571
▁mobility	-14572
▁narrowly	-14573
▁operator	-14574
▁pressing	-14575
▁properly	-14576
▁provoked	-14577
▁refusing	-14578
▁reliance	-14579
▁retiring	-14580
▁secretly	-14581
▁sounding	-14582
▁theology	-14583
▁touching	-14584
▁upstream	-14585
▁Admiralty	-14586
▁Armstrong	-14587
▁Assistant	-14588
▁Churchill	-14589
▁Congolese	-14590
▁Crusaders	-14591
▁Dangerous	-14592
▁Erzherzog	-14593
▁Geography	-14594
▁Patterson	-14595
▁RedOctane	-14596
▁Sebastian	-14597
▁Stockwell	-14598
▁achieving	-14599
▁actresses	-14600
▁attackers	-14601
▁companion	-14602
▁complexes	-14603
▁continent	-14604
▁declining	-14605
▁detective	-14606
▁excessive	-14607
▁legendary	-14608
▁particles	-14609
▁primitive	-14610
▁reconstru	-14611
▁satisfied	-14612
▁sentenced	-14613
▁solutions	-14614
▁submerged	-14615
▁televised	-14616
▁trunkline	-14617
▁wrestling	-14618
▁Ambassador	-14619
▁Battalions	-14620
▁Buckingham	-14621
▁Nottingham	-14622
▁assessment	-14623
▁ceremonies	-14624
▁contradict	-14625
▁decreasing	-14626
▁demolition	-14627
▁downgraded	-14628
▁horsepower	-14629
▁hypothesis	-14630
▁minorities	-14631
▁monitoring	-14632
▁percussion	-14633
▁prominence	-14634
▁quantities	-14635
▁recreation	-14636
▁spectators	-14637
▁strategies	-14638
▁supposedly	-14639
▁underneath	-14640
▁Underground	-14641
▁acquisition	-14642
▁distinction	-14643
▁explanation	-14644
▁instruction	-14645
▁mountainous	-14646
▁progressive	-14647
▁celebrations	-14648
▁continuously	-14649
▁displacement	-14650
▁instructions	-14651
▁presbyterian	-14652
▁determination	-14653
▁psychological	-14654
▁transformation	-14655
▁Representatives	-14656
MA	-14657
ST	-14658
bi	-14659
erg	-14660
esy	-14661
eux	-14662
guy	-14663
ima	-14664
iob	-14665
onz	-14666
orf	-14667
pon	-14668
ums	-14669
vig	-14670
éra	-14671
▁GB	-14672
▁IX	-14673
▁Ko	-14674
▁Ok	-14675
▁Vo	-14676
apur	-14677
atab	-14678
bone	-14679
ects	-14680
engu	-14681
enna	-14682
eria	-14683
ffin	-14684
gins	-14685
hatt	-14686
held	-14687
idia	-14688
inqu	-14689
ipas	-14690
ivic	-14691
lioz	-14692
meer	-14693
oeuv	-14694
okan	-14695
shop	-14696
tage	-14697
tebr	-14698
urbs	-14699
zora	-14700
▁275	-14701
▁320	-14702
▁480	-14703
▁CEO	-14704
▁Dry	-14705
▁Era	-14706
▁HBO	-14707
▁Isa	-14708
▁Jas	-14709
▁Oil	-14710
▁Qin	-14711
▁RAF	-14712
▁TOT	-14713
▁Tat	-14714
▁Typ	-14715
▁Zap	-14716
▁bol	-14717
▁irr	-14718
▁mal	-14719
aceae	-14720
andis	-14721
arten	-14722
arter	-14723
enary	-14724
erner	-14725
ineae	-14726
isham	-14727
ivial	-14728
lance	-14729
lfric	-14730
osion	-14731
ottam	-14732
owned	-14733
quest	-14734
readn	-14735
space	-14736
stage	-14737
umbai	-14738
urred	-14739
▁1801	-14740
▁1821	-14741
▁1831	-14742
▁1834	-14743
▁1884	-14744
▁AIDS	-14745
▁Anat	-14746
▁Anim	-14747
▁Beer	-14748
▁Brah	-14749
[...]
